//this model was created with the TFGyroData Jupyter Notebook. Just place it in the same folder as the .ino file
const unsigned char model[] = {
  0x1c, 0x00, 0x00, 0x00, 0x54, 0x46, 0x4c, 0x33, 0x00, 0x00, 0x12, 0x00,
  0x1c, 0x00, 0x04, 0x00, 0x08, 0x00, 0x0c, 0x00, 0x10, 0x00, 0x14, 0x00,
  0x00, 0x00, 0x18, 0x00, 0x12, 0x00, 0x00, 0x00, 0x03, 0x00, 0x00, 0x00,
  0x7c, 0x24, 0x00, 0x00, 0x10, 0x00, 0x00, 0x00, 0x1c, 0x00, 0x00, 0x00,
  0x2c, 0x00, 0x00, 0x00, 0x0c, 0x00, 0x00, 0x00, 0x01, 0x00, 0x00, 0x00,
  0xe4, 0x00, 0x00, 0x00, 0x01, 0x00, 0x00, 0x00, 0xac, 0x00, 0x00, 0x00,
  0x0f, 0x00, 0x00, 0x00, 0x54, 0x4f, 0x43, 0x4f, 0x20, 0x43, 0x6f, 0x6e,
  0x76, 0x65, 0x72, 0x74, 0x65, 0x64, 0x2e, 0x00, 0x0d, 0x00, 0x00, 0x00,
  0x80, 0x00, 0x00, 0x00, 0x74, 0x00, 0x00, 0x00, 0x68, 0x00, 0x00, 0x00,
  0x5c, 0x00, 0x00, 0x00, 0x50, 0x00, 0x00, 0x00, 0x48, 0x00, 0x00, 0x00,
  0x3c, 0x00, 0x00, 0x00, 0x30, 0x00, 0x00, 0x00, 0x28, 0x00, 0x00, 0x00,
  0x20, 0x00, 0x00, 0x00, 0x18, 0x00, 0x00, 0x00, 0x10, 0x00, 0x00, 0x00,
  0x04, 0x00, 0x00, 0x00, 0xca, 0xdc, 0xff, 0xff, 0x4c, 0x00, 0x00, 0x00,
  0x90, 0xdc, 0xff, 0xff, 0x94, 0xdc, 0xff, 0xff, 0x98, 0xdc, 0xff, 0xff,
  0x9c, 0xdc, 0xff, 0xff, 0xe2, 0xdc, 0xff, 0xff, 0x2c, 0x02, 0x00, 0x00,
  0xea, 0xdc, 0xff, 0xff, 0x98, 0x02, 0x00, 0x00, 0xb0, 0xdc, 0xff, 0xff,
  0xf6, 0xdc, 0xff, 0xff, 0x64, 0x03, 0x00, 0x00, 0xfe, 0xdc, 0xff, 0xff,
  0xa8, 0x21, 0x00, 0x00, 0x06, 0xdd, 0xff, 0xff, 0x14, 0x22, 0x00, 0x00,
  0x0e, 0xdd, 0xff, 0xff, 0x88, 0x22, 0x00, 0x00, 0xd4, 0xdc, 0xff, 0xff,
  0x05, 0x00, 0x00, 0x00, 0x31, 0x2e, 0x35, 0x2e, 0x30, 0x00, 0x00, 0x00,
  0x80, 0xfe, 0xff, 0xff, 0x08, 0x00, 0x00, 0x00, 0x0c, 0x00, 0x00, 0x00,
  0x13, 0x00, 0x00, 0x00, 0x6d, 0x69, 0x6e, 0x5f, 0x72, 0x75, 0x6e, 0x74,
  0x69, 0x6d, 0x65, 0x5f, 0x76, 0x65, 0x72, 0x73, 0x69, 0x6f, 0x6e, 0x00,
  0x0c, 0x00, 0x14, 0x00, 0x04, 0x00, 0x08, 0x00, 0x0c, 0x00, 0x10, 0x00,
  0x0c, 0x00, 0x00, 0x00, 0x20, 0x00, 0x00, 0x00, 0x14, 0x00, 0x00, 0x00,
  0x08, 0x00, 0x00, 0x00, 0x40, 0x22, 0x00, 0x00, 0x01, 0x00, 0x00, 0x00,
  0x00, 0x00, 0x00, 0x00, 0x01, 0x00, 0x00, 0x00, 0x01, 0x00, 0x00, 0x00,
  0x0b, 0x00, 0x00, 0x00, 0x4c, 0x02, 0x00, 0x00, 0xf8, 0x00, 0x00, 0x00,
  0x78, 0x02, 0x00, 0x00, 0x40, 0x01, 0x00, 0x00, 0x64, 0x00, 0x00, 0x00,
  0x94, 0x01, 0x00, 0x00, 0xcc, 0x20, 0x00, 0x00, 0x9c, 0x00, 0x00, 0x00,
  0x0c, 0x00, 0x00, 0x00, 0x1c, 0x21, 0x00, 0x00, 0xac, 0x21, 0x00, 0x00,
  0x66, 0xde, 0xff, 0xff, 0x10, 0x00, 0x00, 0x00, 0x0b, 0x00, 0x00, 0x00,
  0x14, 0x00, 0x00, 0x00, 0x34, 0x00, 0x00, 0x00, 0x02, 0x00, 0x00, 0x00,
  0x01, 0x00, 0x00, 0x00, 0x02, 0x00, 0x00, 0x00, 0x1c, 0x00, 0x00, 0x00,
  0x73, 0x65, 0x71, 0x75, 0x65, 0x6e, 0x74, 0x69, 0x61, 0x6c, 0x5f, 0x31,
  0x2f, 0x64, 0x65, 0x6e, 0x73, 0x65, 0x5f, 0x35, 0x2f, 0x42, 0x69, 0x61,
  0x73, 0x41, 0x64, 0x64, 0x00, 0x00, 0x00, 0x00, 0xac, 0xdd, 0xff, 0xff,
  0xae, 0xde, 0xff, 0xff, 0x10, 0x00, 0x00, 0x00, 0x0a, 0x00, 0x00, 0x00,
  0x14, 0x00, 0x00, 0x00, 0x30, 0x00, 0x00, 0x00, 0x02, 0x00, 0x00, 0x00,
  0x01, 0x00, 0x00, 0x00, 0x04, 0x00, 0x00, 0x00, 0x19, 0x00, 0x00, 0x00,
  0x73, 0x65, 0x71, 0x75, 0x65, 0x6e, 0x74, 0x69, 0x61, 0x6c, 0x5f, 0x31,
  0x2f, 0x64, 0x65, 0x6e, 0x73, 0x65, 0x5f, 0x33, 0x2f, 0x52, 0x65, 0x6c,
  0x75, 0x00, 0x00, 0x00, 0xf0, 0xdd, 0xff, 0xff, 0xf2, 0xde, 0xff, 0xff,
  0x10, 0x00, 0x00, 0x00, 0x09, 0x00, 0x00, 0x00, 0x14, 0x00, 0x00, 0x00,
  0x30, 0x00, 0x00, 0x00, 0x02, 0x00, 0x00, 0x00, 0x01, 0x00, 0x00, 0x00,
  0x04, 0x00, 0x00, 0x00, 0x19, 0x00, 0x00, 0x00, 0x73, 0x65, 0x71, 0x75,
  0x65, 0x6e, 0x74, 0x69, 0x61, 0x6c, 0x5f, 0x31, 0x2f, 0x64, 0x65, 0x6e,
  0x73, 0x65, 0x5f, 0x34, 0x2f, 0x52, 0x65, 0x6c, 0x75, 0x00, 0x00, 0x00,
  0x34, 0xde, 0xff, 0xff, 0x36, 0xdf, 0xff, 0xff, 0x10, 0x00, 0x00, 0x00,
  0x08, 0x00, 0x00, 0x00, 0x14, 0x00, 0x00, 0x00, 0x24, 0x00, 0x00, 0x00,
  0x02, 0x00, 0x00, 0x00, 0x01, 0x00, 0x00, 0x00, 0xe0, 0x01, 0x00, 0x00,
  0x07, 0x00, 0x00, 0x00, 0x69, 0x6e, 0x70, 0x75, 0x74, 0x5f, 0x31, 0x00,
  0x08, 0x00, 0x0c, 0x00, 0x04, 0x00, 0x08, 0x00, 0x08, 0x00, 0x00, 0x00,
  0x10, 0x00, 0x00, 0x00, 0x04, 0x00, 0x00, 0x00, 0x01, 0x00, 0x00, 0x00,
  0x00, 0x00, 0x7f, 0x43, 0x01, 0x00, 0x00, 0x00, 0x00, 0x00, 0x00, 0x00,
  0x86, 0xdf, 0xff, 0xff, 0x10, 0x00, 0x00, 0x00, 0x07, 0x00, 0x00, 0x00,
  0x10, 0x00, 0x00, 0x00, 0x34, 0x00, 0x00, 0x00, 0x01, 0x00, 0x00, 0x00,
  0x04, 0x00, 0x00, 0x00, 0x20, 0x00, 0x00, 0x00, 0x73, 0x65, 0x71, 0x75,
  0x65, 0x6e, 0x74, 0x69, 0x61, 0x6c, 0x5f, 0x31, 0x2f, 0x64, 0x65, 0x6e,
  0x73, 0x65, 0x5f, 0x33, 0x2f, 0x4d, 0x61, 0x74, 0x4d, 0x75, 0x6c, 0x5f,
  0x62, 0x69, 0x61, 0x73, 0x00, 0x00, 0x00, 0x00, 0xcc, 0xde, 0xff, 0xff,
  0x10, 0x00, 0x00, 0x00, 0xbb, 0x3b, 0x97, 0xbd, 0x00, 0x00, 0x00, 0x00,
  0x00, 0x00, 0x00, 0x00, 0x00, 0x00, 0x00, 0x00, 0xe2, 0xdf, 0xff, 0xff,
  0x10, 0x00, 0x00, 0x00, 0x06, 0x00, 0x00, 0x00, 0x14, 0x00, 0x00, 0x00,
  0x4c, 0x00, 0x00, 0x00, 0x02, 0x00, 0x00, 0x00, 0x04, 0x00, 0x00, 0x00,
  0x04, 0x00, 0x00, 0x00, 0x34, 0x00, 0x00, 0x00, 0x73, 0x65, 0x71, 0x75,
  0x65, 0x6e, 0x74, 0x69, 0x61, 0x6c, 0x5f, 0x31, 0x2f, 0x64, 0x65, 0x6e,
  0x73, 0x65, 0x5f, 0x34, 0x2f, 0x4d, 0x61, 0x74, 0x4d, 0x75, 0x6c, 0x2f,
  0x52, 0x65, 0x61, 0x64, 0x56, 0x61, 0x72, 0x69, 0x61, 0x62, 0x6c, 0x65,
  0x4f, 0x70, 0x2f, 0x74, 0x72, 0x61, 0x6e, 0x73, 0x70, 0x6f, 0x73, 0x65,
  0x00, 0x00, 0x00, 0x00, 0x40, 0xdf, 0xff, 0xff, 0x40, 0x00, 0x00, 0x00,
  0xa9, 0xa0, 0x35, 0xbf, 0xa8, 0x5a, 0x99, 0x3d, 0x80, 0xef, 0x53, 0xbc,
  0x39, 0x42, 0x4a, 0x3f, 0x28, 0xf8, 0xe9, 0xbe, 0x9f, 0x27, 0xe4, 0xbe,
  0xef, 0x1d, 0x17, 0x3f, 0x92, 0xd0, 0x8a, 0xbe, 0xd6, 0x77, 0xe8, 0x3f,
  0xa2, 0x38, 0x50, 0xbf, 0x00, 0x60, 0x49, 0xbc, 0xd0, 0xd3, 0x3e, 0xbd,
  0xef, 0xf6, 0xb7, 0x3f, 0xe8, 0x85, 0x8b, 0xbd, 0x72, 0x23, 0xa0, 0x3e,
  0xfa, 0x77, 0x96, 0x3e, 0x86, 0xe0, 0xff, 0xff, 0x10, 0x00, 0x00, 0x00,
  0x05, 0x00, 0x00, 0x00, 0x14, 0x00, 0x00, 0x00, 0x20, 0x00, 0x00, 0x00,
  0x02, 0x00, 0x00, 0x00, 0x01, 0x00, 0x00, 0x00, 0x02, 0x00, 0x00, 0x00,
  0x08, 0x00, 0x00, 0x00, 0x49, 0x64, 0x65, 0x6e, 0x74, 0x69, 0x74, 0x79,
  0x00, 0x00, 0x00, 0x00, 0xb8, 0xdf, 0xff, 0xff, 0xba, 0xe0, 0xff, 0xff,
  0x10, 0x00, 0x00, 0x00, 0x04, 0x00, 0x00, 0x00, 0x14, 0x00, 0x00, 0x00,
  0x4c, 0x00, 0x00, 0x00, 0x02, 0x00, 0x00, 0x00, 0x04, 0x00, 0x00, 0x00,
  0xe0, 0x01, 0x00, 0x00, 0x34, 0x00, 0x00, 0x00, 0x73, 0x65, 0x71, 0x75,
  0x65, 0x6e, 0x74, 0x69, 0x61, 0x6c, 0x5f, 0x31, 0x2f, 0x64, 0x65, 0x6e,
  0x73, 0x65, 0x5f, 0x33, 0x2f, 0x4d, 0x61, 0x74, 0x4d, 0x75, 0x6c, 0x2f,
  0x52, 0x65, 0x61, 0x64, 0x56, 0x61, 0x72, 0x69, 0x61, 0x62, 0x6c, 0x65,
  0x4f, 0x70, 0x2f, 0x74, 0x72, 0x61, 0x6e, 0x73, 0x70, 0x6f, 0x73, 0x65,
  0x00, 0x00, 0x00, 0x00, 0x18, 0xe0, 0xff, 0xff, 0x00, 0x1e, 0x00, 0x00,
  0x90, 0x2b, 0xd5, 0x3e, 0xae, 0x11, 0x48, 0xbe, 0x93, 0xf9, 0xa0, 0x3d,
  0x19, 0xc1, 0x25, 0xbe, 0x2b, 0x8b, 0x02, 0xbe, 0x06, 0x75, 0xd4, 0x3e,
  0xff, 0x78, 0xb0, 0x3e, 0x12, 0x6f, 0x0f, 0xbe, 0xb4, 0x2e, 0xdb, 0x3b,
  0x91, 0xdc, 0x7b, 0xbd, 0x2c, 0x14, 0x26, 0x3c, 0x32, 0xfa, 0xe5, 0x3e,
  0x30, 0xa6, 0xac, 0x3e, 0xfe, 0xb0, 0xa7, 0xbc, 0x3e, 0x96, 0xd0, 0xbc,
  0xdf, 0x46, 0xdf, 0xbd, 0x9e, 0x96, 0x1f, 0xbe, 0x8c, 0xdd, 0x94, 0x3e,
  0x85, 0x0a, 0x06, 0x3e, 0xbd, 0xcb, 0xed, 0x3c, 0x9f, 0x68, 0xf8, 0xbd,
  0x0e, 0xe0, 0x28, 0xbe, 0xcc, 0x68, 0x75, 0xbd, 0xd9, 0xbe, 0x79, 0x3e,
  0xc1, 0x85, 0x79, 0x3e, 0x32, 0x1a, 0xed, 0xbd, 0x5f, 0x00, 0xc6, 0xbd,
  0x3a, 0x87, 0x12, 0xbe, 0x89, 0x3e, 0xfb, 0xbd, 0xb3, 0x23, 0xb2, 0x3e,
  0x35, 0x23, 0x92, 0x3d, 0xd6, 0x08, 0x1c, 0xbc, 0x66, 0x3f, 0x92, 0xbc,
  0x89, 0xab, 0x07, 0xb9, 0xee, 0xd0, 0x81, 0xbc, 0xc4, 0x64, 0x58, 0x3e,
  0x1e, 0xfd, 0xb1, 0x3b, 0xdf, 0x1b, 0x40, 0xbe, 0x6e, 0x98, 0x41, 0x3c,
  0xaf, 0x90, 0x23, 0xbe, 0x31, 0xc3, 0xae, 0x3d, 0x5b, 0x32, 0xb8, 0x3e,
  0xd2, 0x2b, 0xa8, 0x3d, 0x8c, 0x90, 0xdf, 0xbd, 0xfa, 0x0f, 0x07, 0x3d,
  0x5f, 0x07, 0x0c, 0xbe, 0x5b, 0x58, 0xf9, 0x3c, 0xdf, 0xf5, 0x31, 0x3e,
  0xf6, 0x15, 0x22, 0x3d, 0xca, 0x3f, 0xc3, 0xbd, 0x3b, 0x24, 0x49, 0xbb,
  0xfc, 0x42, 0x15, 0xbe, 0xa3, 0x82, 0xd4, 0xbc, 0xfa, 0x62, 0x2d, 0x3e,
  0x7e, 0x2f, 0xe8, 0x3d, 0x1d, 0x44, 0x18, 0xbe, 0xcc, 0x07, 0x8d, 0x3c,
  0xd8, 0x75, 0xaa, 0x3c, 0x7e, 0x91, 0xf8, 0xbd, 0xe8, 0x76, 0x43, 0x3e,
  0xea, 0xc4, 0xf4, 0x3c, 0x9b, 0x9b, 0x19, 0xbe, 0x16, 0xa3, 0x1c, 0xba,
  0x5e, 0xe2, 0x88, 0xbd, 0x46, 0x33, 0xb6, 0xbc, 0x8b, 0x11, 0x81, 0x3e,
  0x3a, 0xdd, 0x0a, 0x3e, 0xb3, 0x88, 0xc4, 0xbd, 0x5c, 0xb0, 0xa9, 0x3c,
  0x9f, 0x4c, 0x37, 0xbc, 0x0e, 0x74, 0x1a, 0x3d, 0x6e, 0x3a, 0x78, 0x3e,
  0x2e, 0x2f, 0x03, 0x3e, 0x74, 0x39, 0x25, 0xbe, 0x0e, 0x4d, 0x8a, 0xbd,
  0xfd, 0x31, 0xea, 0xbd, 0x71, 0x55, 0x48, 0x3b, 0x25, 0x8e, 0x57, 0x3e,
  0x07, 0xe2, 0xf9, 0x3d, 0xcd, 0xfb, 0x4f, 0xbc, 0x35, 0x67, 0x78, 0xbd,
  0x34, 0x85, 0xdb, 0x3c, 0x5e, 0x08, 0x50, 0xbd, 0x07, 0x12, 0xa9, 0x3e,
  0x6b, 0xaf, 0xe7, 0x3d, 0xcc, 0x20, 0x48, 0xbe, 0x5f, 0xa9, 0xbf, 0xbd,
  0xc9, 0x9d, 0x39, 0x3d, 0x6c, 0xc2, 0x14, 0x3c, 0x96, 0xa5, 0x86, 0x3e,
  0xf2, 0x0f, 0xf1, 0x3d, 0x79, 0xa3, 0x18, 0xbe, 0xd3, 0x7e, 0x05, 0xbe,
  0xb7, 0xbd, 0x7c, 0xbc, 0xe0, 0x25, 0xd1, 0xbd, 0x4e, 0x88, 0x37, 0x3e,
  0xae, 0xc5, 0x0c, 0xbd, 0xc5, 0xc1, 0xd6, 0xbd, 0x04, 0xc9, 0xf0, 0xbd,
  0xb4, 0xb2, 0x39, 0x3c, 0x9b, 0xee, 0x9f, 0xbc, 0x92, 0x27, 0x48, 0x3e,
  0xb5, 0x58, 0x88, 0xbc, 0x26, 0xef, 0x8d, 0xbc, 0xff, 0xe8, 0x90, 0xbd,
  0xbe, 0x29, 0xa5, 0xbc, 0x73, 0x83, 0x7f, 0xbd, 0xff, 0xf6, 0xad, 0x3e,
  0x17, 0xf3, 0xf3, 0xbc, 0xa6, 0x9f, 0x3f, 0xbd, 0xfe, 0xce, 0x8e, 0xbe,
  0xeb, 0xeb, 0x23, 0xbe, 0xb5, 0xe3, 0x42, 0xbd, 0x60, 0x5b, 0xb5, 0x3e,
  0xcc, 0x58, 0x39, 0x3e, 0xd9, 0x88, 0x1d, 0xbd, 0x07, 0x89, 0xda, 0xbd,
  0x79, 0x15, 0xa7, 0xbd, 0xe0, 0xb3, 0x40, 0xbe, 0x13, 0xd3, 0x97, 0x3e,
  0xd5, 0xeb, 0x03, 0x3d, 0x6e, 0x00, 0x40, 0xbc, 0xa8, 0x44, 0x81, 0xbe,
  0x2e, 0x46, 0xd4, 0xbd, 0xf7, 0xbd, 0xe6, 0xbd, 0x12, 0xec, 0x3a, 0x3e,
  0xd1, 0x50, 0x52, 0x3e, 0x98, 0xb6, 0x8f, 0xbd, 0x97, 0xf0, 0x80, 0xbe,
  0x1b, 0xee, 0x1a, 0xbe, 0xac, 0x39, 0xb1, 0xbb, 0xd3, 0xc0, 0x2f, 0x3e,
  0xb6, 0x5d, 0x29, 0x3e, 0x84, 0x7b, 0x21, 0xbe, 0x13, 0xce, 0x2e, 0xbe,
  0x69, 0xe3, 0xf5, 0xbc, 0xf5, 0x4f, 0x1c, 0xbe, 0x50, 0x79, 0x4e, 0x3e,
  0xbe, 0x0b, 0x51, 0x3e, 0x39, 0x1c, 0x53, 0xbd, 0xae, 0xa5, 0x12, 0xbe,
  0xc7, 0x2a, 0x63, 0xbd, 0x95, 0x21, 0x9c, 0x3c, 0xfd, 0x12, 0x22, 0x3e,
  0x29, 0x5f, 0x5d, 0x3e, 0xe2, 0x5b, 0xe5, 0xbd, 0xaf, 0x2d, 0x66, 0xbe,
  0x5f, 0x1f, 0x9b, 0xbb, 0x79, 0x2d, 0x42, 0xbd, 0x7b, 0xf5, 0x9b, 0x3e,
  0x03, 0xef, 0xd6, 0x3d, 0x3a, 0x4c, 0xd6, 0xbd, 0xc3, 0xc9, 0x80, 0xbd,
  0x0c, 0x58, 0x43, 0xbe, 0x62, 0x1a, 0xba, 0xbd, 0x38, 0xa6, 0x87, 0x3e,
  0x55, 0x39, 0x59, 0x3e, 0xcb, 0x14, 0x1b, 0xbe, 0x71, 0x67, 0xaa, 0xbc,
  0xc5, 0x0c, 0x0a, 0xbe, 0xba, 0x59, 0x2d, 0x3c, 0xa1, 0x68, 0x27, 0x3e,
  0xcf, 0xf6, 0x06, 0x3e, 0xef, 0x1b, 0x49, 0xbd, 0x3a, 0xc4, 0x91, 0xbd,
  0xb4, 0x58, 0x47, 0xbe, 0x08, 0x14, 0x1e, 0xbe, 0x75, 0x9b, 0x80, 0x3e,
  0xb6, 0x70, 0x57, 0x3e, 0x23, 0x5a, 0x69, 0x3d, 0xf7, 0xd9, 0x29, 0x3d,
  0x1c, 0x77, 0x7a, 0xbd, 0xe6, 0x7e, 0x87, 0xbd, 0xce, 0x76, 0xaf, 0x3d,
  0xa7, 0xb6, 0x41, 0x3e, 0x2f, 0x9f, 0xd4, 0xbd, 0x35, 0x33, 0x96, 0x3c,
  0xa6, 0xe3, 0x99, 0xbd, 0xaa, 0x13, 0x09, 0xbe, 0x16, 0x71, 0xb1, 0x3d,
  0xd6, 0x42, 0x85, 0x3d, 0xbb, 0xbe, 0xdc, 0xbd, 0x1c, 0x50, 0x31, 0x3d,
  0x27, 0x0a, 0x0c, 0xbe, 0xb6, 0x25, 0x5b, 0xbd, 0xd9, 0x34, 0x24, 0x3e,
  0xcb, 0x06, 0x95, 0x3d, 0xe8, 0xd1, 0x9a, 0xbd, 0xeb, 0x9b, 0xa5, 0xbd,
  0xbf, 0x15, 0x44, 0xbe, 0x8e, 0x17, 0x7c, 0xba, 0x87, 0x8a, 0x1e, 0x3e,
  0x84, 0x79, 0x1f, 0x3d, 0x22, 0xe3, 0xfb, 0x3d, 0x26, 0xc8, 0x99, 0x3b,
  0xb7, 0x94, 0xf6, 0xbb, 0x97, 0xda, 0xba, 0xbc, 0x26, 0xea, 0x95, 0x3d,
  0xa7, 0xdb, 0xa9, 0x3d, 0xa1, 0x44, 0xaa, 0xbc, 0x91, 0x30, 0x1d, 0x3d,
  0x5e, 0x4f, 0x3a, 0xbd, 0x43, 0x9f, 0xed, 0x3c, 0xc2, 0xd9, 0xfb, 0x3d,
  0xcb, 0x20, 0xd7, 0x3d, 0xb9, 0x5f, 0x01, 0x3e, 0xc6, 0x2c, 0x14, 0xbe,
  0x8d, 0x52, 0x58, 0xbd, 0x86, 0x4d, 0x67, 0xbc, 0x02, 0xe1, 0x3f, 0x3d,
  0x40, 0x76, 0x0e, 0x3d, 0xac, 0xc1, 0xa0, 0xbd, 0xfb, 0x8a, 0x07, 0x3c,
  0x68, 0xc9, 0x2c, 0xbd, 0x63, 0xd0, 0x06, 0xbe, 0x22, 0xcb, 0x57, 0x3d,
  0x5b, 0x64, 0xe6, 0xbc, 0xef, 0xe4, 0xe2, 0x3d, 0xd3, 0x51, 0x89, 0xbd,
  0x02, 0x97, 0x5c, 0xbd, 0x62, 0xe7, 0x72, 0x3c, 0xea, 0x34, 0x2d, 0x3e,
  0xef, 0x3a, 0xdc, 0x3b, 0xa5, 0xcc, 0xd6, 0x3d, 0xec, 0x03, 0x83, 0x3d,
  0xef, 0x95, 0x0c, 0xbe, 0x69, 0x12, 0x09, 0xbe, 0xf3, 0x9f, 0x66, 0x3e,
  0x1a, 0x32, 0x4d, 0x3d, 0x37, 0x6f, 0xad, 0x3d, 0x0a, 0x65, 0xa7, 0xbd,
  0x17, 0x56, 0x88, 0xbc, 0x78, 0x49, 0x8f, 0xbd, 0x87, 0xd2, 0xca, 0x3d,
  0x47, 0x66, 0x88, 0x3d, 0xd5, 0x81, 0xe4, 0x3d, 0x01, 0x55, 0x3f, 0xbd,
  0x36, 0x47, 0xe4, 0xbd, 0x98, 0xf4, 0x8c, 0x3c, 0x41, 0x72, 0x0c, 0x3d,
  0x1e, 0x5b, 0xdb, 0x3d, 0x83, 0xf8, 0xa0, 0x3d, 0x8e, 0xbe, 0x79, 0x3c,
  0x1b, 0x1c, 0xf9, 0xbc, 0x9d, 0x52, 0x7d, 0xbd, 0x62, 0xf8, 0x2b, 0x3e,
  0xde, 0xa6, 0x46, 0x3e, 0xaa, 0xdf, 0x14, 0x3e, 0x0d, 0x92, 0x17, 0xbe,
  0x2a, 0x12, 0x05, 0x3c, 0x91, 0x5f, 0x9b, 0xbc, 0x73, 0x8a, 0x4d, 0x3e,
  0xe7, 0x7b, 0xec, 0x3d, 0x31, 0x8b, 0xc6, 0x3d, 0x5c, 0x12, 0x88, 0xbd,
  0x9a, 0x2c, 0x18, 0xbe, 0x9a, 0x61, 0xda, 0xbd, 0x15, 0x97, 0x4f, 0x3d,
  0x29, 0x91, 0x01, 0x3c, 0x0a, 0x0d, 0x90, 0x3c, 0xa5, 0x76, 0xe4, 0xbd,
  0x5b, 0x34, 0x62, 0xbe, 0xe0, 0xd6, 0xe7, 0xbd, 0x19, 0xb5, 0x0f, 0x3e,
  0xee, 0xbe, 0x31, 0x3e, 0x59, 0x4f, 0x4b, 0x3d, 0x86, 0xe2, 0xf8, 0xbd,
  0xd2, 0xbb, 0xd9, 0xbd, 0x97, 0x91, 0x8d, 0xbd, 0x77, 0xa8, 0x6d, 0x3e,
  0x4b, 0xde, 0x12, 0x3e, 0xe4, 0xe8, 0x03, 0xbc, 0x60, 0xb8, 0x9a, 0xbd,
  0x14, 0x00, 0x3f, 0xbe, 0x5f, 0x4e, 0xc9, 0xbd, 0x74, 0xe9, 0x46, 0x3e,
  0x40, 0x49, 0x6a, 0x3e, 0xfc, 0xf9, 0x62, 0x3d, 0xf9, 0xa2, 0xd2, 0xbd,
  0x1d, 0xee, 0x07, 0xbe, 0xe2, 0xf1, 0x0b, 0xbd, 0x11, 0x27, 0xd6, 0x3d,
  0xc4, 0xe3, 0x6b, 0x3e, 0xaa, 0xaf, 0xa7, 0xbd, 0x80, 0xb4, 0x75, 0xbc,
  0x26, 0x53, 0x06, 0xbe, 0xda, 0x38, 0xbb, 0xbd, 0x41, 0x60, 0xc1, 0x3c,
  0x48, 0xd0, 0x00, 0x3e, 0xd3, 0x16, 0x8f, 0x3d, 0x9a, 0xda, 0xd2, 0xbd,
  0x02, 0x77, 0xcc, 0xbd, 0xfb, 0xf2, 0xa9, 0xbd, 0xe2, 0x0b, 0x48, 0x3e,
  0x56, 0x51, 0x89, 0x3e, 0xa5, 0x84, 0x7b, 0xbd, 0xe9, 0xd9, 0xd6, 0xbd,
  0xd4, 0xf0, 0xbd, 0xbd, 0xe7, 0x70, 0x36, 0xbd, 0xc0, 0x3f, 0x44, 0x3c,
  0xa2, 0x74, 0x4b, 0x3e, 0x2f, 0xfb, 0xf5, 0xbd, 0xb3, 0x33, 0x39, 0x3d,
  0xb9, 0x6c, 0xb4, 0xbd, 0xa7, 0x56, 0xcd, 0x3c, 0x8b, 0x8c, 0x65, 0xbd,
  0x8a, 0x7f, 0x76, 0x3e, 0x60, 0xa7, 0x82, 0xbd, 0x26, 0xf5, 0xd9, 0x3b,
  0x85, 0xb2, 0x56, 0xbd, 0xf4, 0x7a, 0x58, 0xbd, 0xc7, 0xd5, 0x1e, 0x3e,
  0x21, 0xd5, 0x8e, 0x3e, 0x10, 0x1c, 0x35, 0x3d, 0xcc, 0x23, 0x48, 0x3b,
  0x78, 0xa2, 0x04, 0xbd, 0xd4, 0x82, 0xc2, 0x3c, 0x8e, 0x61, 0x17, 0x3e,
  0x37, 0x0d, 0x4c, 0x3e, 0x14, 0x8d, 0xf5, 0xbd, 0xa3, 0xba, 0x92, 0xbd,
  0x84, 0x66, 0x6f, 0xbe, 0xab, 0x9c, 0xdd, 0xbd, 0x69, 0x1b, 0x4c, 0xbd,
  0x8b, 0xc6, 0x22, 0x3e, 0x5e, 0x6a, 0x03, 0xbe, 0xd9, 0xdf, 0x4d, 0x3d,
  0xe9, 0x3b, 0x71, 0xbe, 0xa0, 0x06, 0xf8, 0xbd, 0x9b, 0xae, 0xee, 0xbc,
  0x76, 0x06, 0x3e, 0x3e, 0x34, 0xd6, 0x87, 0xba, 0xba, 0x3d, 0x24, 0x3d,
  0xf7, 0x84, 0x0f, 0xbd, 0x13, 0x56, 0x8a, 0x3d, 0x3f, 0xd6, 0x50, 0xbc,
  0xcb, 0xb5, 0xb3, 0x3d, 0xf4, 0xd5, 0xc8, 0xbd, 0x7e, 0xb8, 0x9a, 0xbd,
  0x72, 0x27, 0x25, 0xbe, 0x65, 0x8b, 0xf3, 0xbc, 0x7c, 0x77, 0x58, 0x3c,
  0xa6, 0xb9, 0xef, 0x3d, 0x70, 0x71, 0xcf, 0x3d, 0xf8, 0xc2, 0xee, 0x3c,
  0x27, 0x9a, 0x54, 0xbe, 0x60, 0x80, 0x10, 0xbd, 0xa6, 0x59, 0xd0, 0xbd,
  0x12, 0x9c, 0x3a, 0x3e, 0x52, 0x97, 0x1b, 0xbd, 0x16, 0x6c, 0x05, 0xbe,
  0xb6, 0xa7, 0x0f, 0xbe, 0x3d, 0x73, 0x80, 0x3c, 0x48, 0x6b, 0x4e, 0xbd,
  0x9d, 0x09, 0x8c, 0x3d, 0xac, 0x25, 0x35, 0x3d, 0x70, 0x57, 0x9f, 0xbd,
  0xd5, 0x41, 0x43, 0xbe, 0x6c, 0x7e, 0x0c, 0xbe, 0xc2, 0x6f, 0x4c, 0xbd,
  0x15, 0xb9, 0xe4, 0x3d, 0x68, 0xc4, 0xf3, 0xbc, 0xf2, 0x74, 0xb7, 0xbd,
  0xf9, 0xa9, 0x17, 0xbe, 0x33, 0x40, 0x08, 0xbe, 0xaa, 0x93, 0xbf, 0x3d,
  0x3e, 0x8d, 0x3e, 0x3d, 0x31, 0x08, 0xb5, 0x3d, 0x17, 0x70, 0x01, 0xbe,
  0xfe, 0x99, 0x42, 0xbd, 0x44, 0xca, 0xe3, 0xbd, 0xf3, 0x4c, 0x8a, 0x3c,
  0x93, 0xbf, 0x15, 0x3e, 0x52, 0xfd, 0x93, 0x3d, 0xf1, 0xb1, 0x2e, 0xbd,
  0x7b, 0xbe, 0xba, 0xbd, 0x5b, 0xe7, 0x90, 0xbd, 0x23, 0xfb, 0x98, 0xba,
  0x84, 0x11, 0x29, 0x3e, 0xbb, 0xcc, 0xa0, 0x3d, 0x94, 0x19, 0xd7, 0xbc,
  0xd1, 0xc3, 0x9b, 0xbc, 0x28, 0x6d, 0x0b, 0xbe, 0x78, 0xa6, 0xce, 0x3c,
  0xf4, 0xac, 0xb1, 0x3e, 0xa1, 0x29, 0x30, 0x3d, 0xe2, 0x92, 0x2f, 0xbd,
  0xf0, 0xab, 0x23, 0xbe, 0x54, 0xa4, 0xd5, 0x3c, 0xef, 0xab, 0x84, 0x3c,
  0x37, 0x2d, 0xa5, 0x3e, 0x11, 0x75, 0x73, 0xbd, 0xce, 0x5f, 0xea, 0xbc,
  0x05, 0xa4, 0x09, 0xbd, 0xbf, 0xf7, 0xed, 0xbb, 0x03, 0xf5, 0x58, 0x3d,
  0x93, 0x72, 0x80, 0x3e, 0x22, 0x4b, 0xa2, 0x3d, 0xa2, 0x63, 0x30, 0x3c,
  0xc6, 0xdb, 0x15, 0xbe, 0x16, 0xaa, 0xee, 0xbd, 0x51, 0x99, 0xa1, 0x3c,
  0x43, 0xd9, 0xdd, 0x3e, 0x5d, 0x1d, 0xba, 0x3d, 0x4b, 0xdb, 0xa0, 0xbd,
  0x53, 0x7a, 0x58, 0xbe, 0xc3, 0xdc, 0x50, 0xbd, 0x9c, 0x11, 0x24, 0x3d,
  0x28, 0x3c, 0xe2, 0x3e, 0x30, 0x96, 0x88, 0xbd, 0xe9, 0x4c, 0xbc, 0xbd,
  0x97, 0xff, 0x1d, 0xbe, 0xc9, 0x5d, 0x53, 0xbe, 0x96, 0xe3, 0x57, 0xbd,
  0xd7, 0x2d, 0x87, 0x3e, 0x97, 0x0e, 0x98, 0x3a, 0xcc, 0x8a, 0x23, 0xbe,
  0x69, 0xfa, 0xe8, 0xbd, 0x55, 0xfb, 0x74, 0xbd, 0x7f, 0x15, 0x24, 0xbd,
  0x45, 0xed, 0xce, 0x3e, 0x46, 0x52, 0xfe, 0xbc, 0x32, 0x9e, 0x29, 0xbe,
  0x8e, 0x5a, 0x37, 0xbd, 0x3e, 0xf4, 0xc9, 0x3c, 0x21, 0xda, 0x58, 0xbe,
  0x3a, 0x67, 0x94, 0x3e, 0x4e, 0xff, 0x46, 0x3d, 0x70, 0x80, 0x11, 0xbe,
  0xfa, 0x65, 0x43, 0xbd, 0x95, 0x66, 0x02, 0xbe, 0xfb, 0x7d, 0xe5, 0xbd,
  0xbf, 0xd1, 0x8c, 0x3e, 0x7f, 0x43, 0xee, 0x3c, 0xbc, 0x63, 0xbe, 0x3c,
  0x51, 0x0a, 0xef, 0xbd, 0x7e, 0x46, 0x4c, 0xbc, 0xca, 0x6e, 0xf6, 0xbd,
  0x55, 0x46, 0x55, 0x3e, 0x1d, 0xc2, 0x0b, 0xbd, 0x62, 0xed, 0x2b, 0x3d,
  0x11, 0xc5, 0xcf, 0xbd, 0x86, 0x22, 0x15, 0xbe, 0xba, 0x06, 0x83, 0xbe,
  0x43, 0x95, 0x1f, 0x3e, 0x88, 0x54, 0x98, 0xbd, 0x11, 0x5a, 0x22, 0xbd,
  0x8e, 0xe5, 0xe6, 0xbd, 0x8d, 0x9a, 0x05, 0xbe, 0x25, 0xb1, 0x76, 0xbe,
  0x22, 0x2d, 0x93, 0x3e, 0xcf, 0x51, 0x25, 0x3b, 0x3b, 0xf4, 0x13, 0xbe,
  0x0e, 0x87, 0x05, 0xbc, 0x48, 0x35, 0x3b, 0x3d, 0xf4, 0x9e, 0x2b, 0xbe,
  0x46, 0x26, 0xb3, 0x3e, 0x01, 0xa5, 0x07, 0xbe, 0x4e, 0x8e, 0xe5, 0xbb,
  0x50, 0x85, 0x6c, 0xbe, 0x7a, 0x9e, 0x99, 0x3d, 0xe1, 0xd7, 0x7b, 0xbe,
  0xe9, 0x25, 0xb0, 0x3e, 0xe6, 0xe9, 0xde, 0x3c, 0x28, 0xdf, 0x0b, 0xbe,
  0x13, 0x18, 0x7b, 0xbd, 0xc5, 0x2a, 0x5b, 0xbc, 0xe0, 0xac, 0x80, 0xbe,
  0x57, 0xfb, 0xed, 0x3d, 0xdc, 0xac, 0xf5, 0x3c, 0xf6, 0x18, 0x24, 0xbe,
  0x1e, 0x4f, 0x0a, 0xbe, 0x59, 0x73, 0x82, 0xbd, 0xb6, 0x2a, 0xc7, 0xbe,
  0x58, 0x1a, 0x7a, 0x3e, 0x23, 0x65, 0x53, 0x3c, 0x46, 0xa8, 0x06, 0xbe,
  0xce, 0xc8, 0x02, 0xbe, 0x96, 0x0e, 0x73, 0x3d, 0x90, 0xc0, 0xbc, 0xbe,
  0x70, 0x0c, 0x37, 0xbd, 0x19, 0x5c, 0xd8, 0x3d, 0xdf, 0x8a, 0xdc, 0x3d,
  0xa8, 0xe8, 0xb6, 0xbd, 0xc5, 0xb2, 0xca, 0xbd, 0x80, 0x90, 0x69, 0xbc,
  0xa1, 0x5f, 0x79, 0xbd, 0xb1, 0xc6, 0xe1, 0x3d, 0x8a, 0xde, 0x6a, 0xbd,
  0x62, 0x51, 0x74, 0x3d, 0x62, 0x2d, 0x17, 0x3d, 0xf6, 0x37, 0xc7, 0xbd,
  0xa6, 0x91, 0x4a, 0x3d, 0x66, 0xe2, 0x0d, 0xbd, 0xee, 0x74, 0x44, 0x3d,
  0x7c, 0x52, 0xa4, 0x3c, 0xb6, 0x44, 0x10, 0x3d, 0x06, 0xf0, 0x2e, 0x3d,
  0x84, 0x54, 0x1c, 0xbd, 0x8e, 0xbb, 0x2e, 0x3d, 0xcb, 0x32, 0xce, 0x3d,
  0x60, 0x71, 0x49, 0xbb, 0x54, 0xf4, 0xba, 0xbd, 0xa2, 0x5a, 0xde, 0xbd,
  0xa0, 0x68, 0xe1, 0xbb, 0x3c, 0x16, 0x99, 0x3c, 0xa5, 0x3f, 0xa7, 0x3d,
  0xe4, 0xa4, 0xc5, 0x3c, 0x9f, 0x98, 0xaa, 0x3d, 0x3b, 0x5f, 0x52, 0xbd,
  0x04, 0x3e, 0xf0, 0xbc, 0x6c, 0xb3, 0xad, 0xbd, 0xd2, 0x32, 0x7e, 0x3d,
  0xa2, 0xc8, 0x2f, 0xbd, 0x36, 0x92, 0x37, 0xbd, 0x6d, 0xe8, 0xdd, 0xbd,
  0xaf, 0xad, 0xd6, 0xbd, 0xfc, 0xed, 0x30, 0xbd, 0x97, 0x29, 0xdb, 0x3d,
  0x5f, 0x25, 0xc8, 0x3d, 0xf6, 0xea, 0x52, 0x3d, 0xff, 0x53, 0xe0, 0x3d,
  0xf0, 0x2f, 0x4e, 0x3c, 0x55, 0xbc, 0xe2, 0x3d, 0x34, 0x57, 0xb8, 0x3c,
  0xc6, 0xe8, 0x7e, 0xbd, 0x72, 0x34, 0x4f, 0x3d, 0x21, 0x48, 0xd3, 0x3d,
  0x85, 0x1e, 0x95, 0x3d, 0x6f, 0xa3, 0xc7, 0x3d, 0x74, 0x4d, 0x99, 0x3c,
  0xbc, 0xf2, 0xcb, 0xbd, 0xec, 0xf8, 0xe3, 0xbc, 0xd2, 0x0d, 0x8c, 0xbd,
  0xf2, 0xdf, 0x52, 0x3d, 0x98, 0x01, 0xa8, 0xbc, 0x5e, 0x1e, 0x5e, 0x3d,
  0x46, 0x84, 0x5d, 0x3d, 0xde, 0x70, 0x27, 0x3d, 0x88, 0x20, 0x76, 0xbd,
  0xa6, 0x7c, 0xda, 0xbd, 0x90, 0xf2, 0x33, 0x3c, 0x7c, 0xca, 0xaf, 0xbd,
  0xb2, 0xbf, 0x3d, 0x3d, 0x01, 0x9d, 0xad, 0x3d, 0x36, 0xee, 0x66, 0xbd,
  0xae, 0xe4, 0x19, 0x3d, 0x36, 0xce, 0x9e, 0xbd, 0x27, 0xfe, 0xa6, 0x3d,
  0x98, 0x36, 0x10, 0xbc, 0x5a, 0x66, 0x65, 0x3d, 0x77, 0x21, 0xb0, 0x3d,
  0x8c, 0xc8, 0x31, 0xbd, 0x70, 0xb0, 0x92, 0x3b, 0x6d, 0x73, 0xb8, 0xbd,
  0x63, 0x9c, 0xae, 0x3d, 0x6e, 0x8c, 0x27, 0x3d, 0xd6, 0x58, 0xc4, 0xbd,
  0xc1, 0xd8, 0xbe, 0x3d, 0x33, 0x24, 0x95, 0x3d, 0x26, 0xb8, 0x73, 0x3d,
  0xe3, 0x03, 0xa5, 0x3d, 0xaa, 0xac, 0x5a, 0xbd, 0xdc, 0xf2, 0xc6, 0xbd,
  0x40, 0x54, 0x72, 0xbd, 0xa4, 0xdd, 0xb4, 0x3c, 0x04, 0x60, 0xb1, 0x3c,
  0x8e, 0x8f, 0x24, 0x3d, 0xb9, 0x49, 0xe1, 0xbd, 0xb0, 0x5d, 0xde, 0xbb,
  0x04, 0x36, 0xe3, 0xbd, 0x40, 0x8a, 0x65, 0xbc, 0x81, 0x95, 0xe1, 0x3d,
  0x5e, 0x37, 0x25, 0xbd, 0x98, 0x0b, 0x99, 0xbc, 0x08, 0x7c, 0x9f, 0xbc,
  0x98, 0xa2, 0x57, 0x3c, 0x26, 0xdd, 0x58, 0x3d, 0x50, 0xb1, 0xd4, 0xbc,
  0xfe, 0x26, 0x2b, 0x3d, 0x02, 0xbc, 0x97, 0xbd, 0xf0, 0xa8, 0xd1, 0xbc,
  0x6c, 0xfe, 0x9d, 0xbd, 0x9b, 0x9e, 0xc4, 0x3d, 0x22, 0xe8, 0x74, 0x3d,
  0xe9, 0x9e, 0xac, 0x3d, 0x96, 0x69, 0xbb, 0xbd, 0x5b, 0x0f, 0x84, 0x3d,
  0x86, 0x7e, 0x15, 0x3d, 0x18, 0xb0, 0x79, 0x3c, 0x98, 0xbd, 0xd3, 0xbd,
  0x51, 0xad, 0xe3, 0xbd, 0xed, 0x76, 0xc8, 0xbd, 0x85, 0x3a, 0xab, 0x3d,
  0x3d, 0xf1, 0xd1, 0x3d, 0xe4, 0x06, 0xee, 0x3c, 0x2e, 0xba, 0x6d, 0x3d,
  0x62, 0x10, 0x7f, 0xbd, 0x8d, 0xe0, 0x83, 0xbd, 0xc1, 0x90, 0xe2, 0x3d,
  0xac, 0x3c, 0xc1, 0x3c, 0x77, 0x03, 0xc6, 0xbd, 0x69, 0x23, 0xbf, 0x3d,
  0xc0, 0x6a, 0x12, 0xbc, 0x98, 0xb2, 0x7f, 0xbc, 0xad, 0xe5, 0xb7, 0xbd,
  0x90, 0x1c, 0xd9, 0xbd, 0x6f, 0x04, 0xb9, 0x3d, 0x30, 0x88, 0x44, 0xbc,
  0xc6, 0x75, 0x66, 0x3d, 0x5d, 0xe3, 0xd0, 0x3d, 0x02, 0x0b, 0xab, 0xbd,
  0x72, 0xf9, 0x13, 0xbd, 0x21, 0x1f, 0xb6, 0xbd, 0xdd, 0x8d, 0x89, 0x3d,
  0xa6, 0xd8, 0x9b, 0xbd, 0xfa, 0x79, 0x55, 0x3d, 0x93, 0xaa, 0x86, 0x3d,
  0x60, 0x6f, 0x1f, 0xbd, 0xf5, 0x1d, 0xa1, 0x3d, 0x4f, 0x44, 0xe0, 0xbd,
  0x51, 0xed, 0xd1, 0xbd, 0x00, 0xd9, 0x3d, 0xbc, 0xb1, 0xa1, 0xcb, 0x3d,
  0xdf, 0x6a, 0x49, 0xbd, 0x74, 0xa7, 0x29, 0xbd, 0x3a, 0x35, 0x1d, 0x3d,
  0x5c, 0xee, 0x19, 0xbd, 0x16, 0xea, 0x0c, 0x3d, 0x68, 0xc4, 0x8a, 0xbd,
  0x00, 0xff, 0x3d, 0x3a, 0xaa, 0x50, 0x96, 0xbd, 0x40, 0xdf, 0x92, 0xbd,
  0xbc, 0xbd, 0x89, 0x3c, 0xc3, 0xb4, 0xa8, 0x3d, 0xe4, 0x28, 0xae, 0x3c,
  0x0c, 0x36, 0x94, 0x3c, 0xa0, 0x4c, 0x81, 0xbb, 0x48, 0x8a, 0x29, 0xbc,
  0x75, 0x44, 0x4a, 0xbd, 0xce, 0x1c, 0x00, 0xbd, 0xc2, 0xcd, 0x2c, 0xbd,
  0x18, 0x30, 0xde, 0xbc, 0xc1, 0x4e, 0xb7, 0xbd, 0xb7, 0xfb, 0xa4, 0x3d,
  0x1c, 0x22, 0x0b, 0xbd, 0x9b, 0xb3, 0xaa, 0xbd, 0x39, 0x8b, 0xa1, 0xbd,
  0xaf, 0x1d, 0x9a, 0x3d, 0x20, 0xfc, 0xb9, 0xbd, 0x49, 0x6f, 0xa8, 0x3d,
  0x39, 0x96, 0xb0, 0x3d, 0xe8, 0x82, 0x68, 0xbd, 0x3d, 0xb3, 0xcf, 0xbd,
  0x80, 0x95, 0x51, 0x3c, 0x08, 0xa8, 0x58, 0x3c, 0xd0, 0x33, 0xcb, 0x3b,
  0x2a, 0x1b, 0x37, 0x3d, 0x34, 0x83, 0x85, 0xbd, 0xa6, 0x3a, 0x62, 0x3d,
  0xb7, 0x11, 0xad, 0xbd, 0x84, 0x19, 0xc2, 0x3c, 0x50, 0x86, 0xb7, 0xbd,
  0x8d, 0x5f, 0x9c, 0xbd, 0xeb, 0xc1, 0xbc, 0xbd, 0xf1, 0x85, 0xe3, 0xbd,
  0x21, 0x35, 0x9a, 0x3d, 0xe0, 0xa8, 0x90, 0xbd, 0x72, 0x31, 0xad, 0xbd,
  0xa0, 0x34, 0x08, 0xbd, 0x00, 0x72, 0x80, 0xb9, 0x80, 0xf3, 0xa8, 0x3b,
  0x5b, 0x3e, 0x9e, 0x3d, 0x44, 0xc9, 0xdc, 0x3c, 0x89, 0xb9, 0xbe, 0x3d,
  0x1c, 0x67, 0xda, 0xbc, 0xa0, 0x4e, 0x4f, 0x3b, 0xc4, 0x64, 0xaf, 0x3c,
  0x50, 0xbe, 0x1f, 0xbd, 0x87, 0x6f, 0x84, 0x3d, 0x78, 0x1f, 0x6e, 0x3c,
  0xfc, 0x9f, 0xa3, 0x3c, 0x49, 0x27, 0xba, 0x3d, 0x60, 0x9a, 0x61, 0xbd,
  0xbe, 0xd6, 0x03, 0xbd, 0xf4, 0x81, 0xd7, 0xbd, 0x1c, 0x41, 0xc0, 0x3c,
  0x34, 0x33, 0xfa, 0x3c, 0xc1, 0x86, 0xbd, 0x3d, 0x54, 0x7d, 0x48, 0xbd,
  0x9b, 0xb8, 0xbc, 0x3d, 0xc8, 0x52, 0x7a, 0xbc, 0x38, 0x2e, 0x25, 0xbc,
  0xbe, 0x40, 0x5a, 0x3d, 0x70, 0x66, 0xe4, 0x3b, 0x80, 0x29, 0xc3, 0x3a,
  0x1b, 0xdd, 0xca, 0x3d, 0x9c, 0xfc, 0x82, 0x3c, 0xbe, 0x97, 0x47, 0xbd,
  0x90, 0xbb, 0x9c, 0x3b, 0x59, 0x35, 0xa7, 0x3d, 0x20, 0x91, 0xab, 0xbb,
  0x23, 0x96, 0xd2, 0xbd, 0xac, 0x44, 0xba, 0x3c, 0x08, 0x89, 0x5d, 0xbc,
  0x2c, 0x11, 0xc9, 0xbd, 0x27, 0x98, 0xb8, 0x3d, 0xbc, 0xff, 0x9e, 0x3c,
  0xf4, 0x28, 0x84, 0x3c, 0x40, 0xaf, 0x54, 0x3b, 0xd9, 0x48, 0x5e, 0xbd,
  0x1e, 0xfc, 0x1c, 0x3d, 0x70, 0xb9, 0xaa, 0xbd, 0xf4, 0x0f, 0x24, 0xbd,
  0x00, 0x90, 0xc2, 0x38, 0xd0, 0x14, 0xa1, 0xbd, 0x13, 0xf1, 0xb3, 0xbd,
  0x48, 0xf1, 0x7f, 0xbc, 0x68, 0x07, 0x29, 0xbd, 0x81, 0x37, 0x8d, 0xbd,
  0xc7, 0xe3, 0xde, 0x3d, 0x60, 0x42, 0x7c, 0xbd, 0x00, 0x80, 0xbf, 0x36,
  0x06, 0x24, 0x20, 0xbd, 0xbf, 0x67, 0x56, 0xbd, 0x36, 0x6b, 0x79, 0x3d,
  0xda, 0x04, 0x98, 0xbd, 0x0c, 0xa4, 0xe0, 0x3c, 0xd0, 0xf3, 0xc1, 0xbd,
  0x08, 0xf7, 0x33, 0xbd, 0x51, 0x87, 0xce, 0x3d, 0xb6, 0xa4, 0x16, 0xbd,
  0x47, 0xc6, 0xb4, 0x3d, 0xd6, 0x6c, 0x5d, 0x3d, 0x1f, 0x20, 0x87, 0x3d,
  0x04, 0xa6, 0xff, 0x3c, 0xed, 0x49, 0x95, 0x3d, 0x1a, 0xdd, 0x19, 0xbd,
  0x34, 0x51, 0xd1, 0xbc, 0x70, 0xdd, 0x55, 0x3c, 0x08, 0xd2, 0x7f, 0x3c,
  0x30, 0x20, 0xe8, 0x3b, 0x7f, 0x4f, 0xab, 0x3d, 0x3a, 0x22, 0xdf, 0xbd,
  0x79, 0x58, 0xa9, 0x3d, 0xa8, 0xaf, 0x3e, 0xbd, 0x89, 0x28, 0x84, 0x3d,
  0x59, 0x6b, 0xa9, 0xbd, 0x54, 0xcb, 0x71, 0xbd, 0xa2, 0x28, 0x33, 0x3d,
  0xe1, 0xfb, 0x68, 0xbd, 0x89, 0xc2, 0x96, 0x3d, 0x41, 0xaa, 0xbe, 0x3d,
  0xb3, 0x61, 0xcd, 0x3d, 0xd6, 0x1e, 0x29, 0x3d, 0xf6, 0x2d, 0x63, 0x3d,
  0x00, 0x78, 0x33, 0xb8, 0x5d, 0xf1, 0xb5, 0x3d, 0xce, 0xd9, 0x6f, 0xbd,
  0x67, 0xe0, 0xaf, 0x3d, 0x50, 0xd3, 0xc3, 0xbc, 0xf4, 0x50, 0xb1, 0xbd,
  0xf8, 0x26, 0xd8, 0xbc, 0x89, 0x87, 0xb9, 0xbd, 0x62, 0x11, 0x7c, 0x3d,
  0x5f, 0x1d, 0xbe, 0x3d, 0x66, 0xa0, 0xc5, 0xbd, 0x50, 0xb9, 0xdf, 0xbd,
  0xcc, 0x54, 0x8e, 0xbd, 0x54, 0x7d, 0xd0, 0x3c, 0x61, 0x13, 0xb6, 0x3d,
  0x73, 0xf0, 0xb5, 0xbd, 0x19, 0x19, 0x75, 0xbd, 0x14, 0x20, 0x8f, 0x3c,
  0x91, 0xc2, 0xc5, 0xbd, 0x24, 0x01, 0xfd, 0x3c, 0xfc, 0x4d, 0xcb, 0xbc,
  0x57, 0xe8, 0x61, 0xbd, 0xc1, 0x56, 0x70, 0xbd, 0x30, 0xf0, 0x5b, 0x3c,
  0xc0, 0xae, 0xa2, 0xba, 0xfa, 0x8f, 0xe0, 0xbd, 0xb4, 0xee, 0xee, 0xbc,
  0xa2, 0x38, 0x13, 0x3d, 0x08, 0xa5, 0xb6, 0xbc, 0xc4, 0xd1, 0x2b, 0xbd,
  0x0a, 0xee, 0x98, 0xbd, 0x1c, 0x25, 0xbd, 0x3c, 0xf2, 0x4a, 0x0e, 0xbd,
  0xa6, 0x4c, 0x86, 0xbd, 0x8b, 0x17, 0xb7, 0xbd, 0x22, 0xc9, 0x33, 0xbd,
  0x02, 0x88, 0xb8, 0xbd, 0xa8, 0x44, 0xdf, 0xbd, 0xc5, 0x76, 0xc6, 0x3d,
  0x60, 0x98, 0x62, 0xbc, 0x58, 0x69, 0x3f, 0xbd, 0xcf, 0xef, 0x4e, 0xbd,
  0x78, 0xba, 0x12, 0xbc, 0xf1, 0x7e, 0xc1, 0x3d, 0x4c, 0xfa, 0xe6, 0xbc,
  0xe1, 0x2e, 0x85, 0xbd, 0x66, 0x3b, 0x61, 0x3d, 0xb4, 0x9a, 0x3a, 0xbd,
  0xca, 0xb8, 0x0d, 0x3d, 0xe0, 0x70, 0x8c, 0xbd, 0x0e, 0x49, 0x13, 0x3d,
  0xdd, 0x18, 0xb9, 0xbd, 0x19, 0x3a, 0xbb, 0xbd, 0xb8, 0xf2, 0x70, 0xbc,
  0x90, 0x6c, 0x29, 0xbc, 0x5c, 0xb4, 0x09, 0xbd, 0xfa, 0x25, 0x79, 0x3d,
  0x97, 0x6d, 0xa3, 0xbd, 0xfa, 0xe3, 0x1b, 0x3d, 0xc0, 0x5e, 0xa6, 0xba,
  0x0b, 0xe3, 0xdb, 0x3d, 0x11, 0x91, 0xda, 0x3d, 0xa8, 0xf9, 0x72, 0x3c,
  0x65, 0xde, 0x9f, 0x3d, 0x72, 0xc8, 0x8a, 0xbd, 0x6d, 0x72, 0xb2, 0x3d,
  0x00, 0x5a, 0x9c, 0x39, 0xb4, 0x25, 0xdf, 0xbd, 0x5a, 0xca, 0x69, 0x3d,
  0xda, 0xbb, 0x37, 0xbd, 0x4e, 0x37, 0x2c, 0x3d, 0x58, 0x40, 0x12, 0xbc,
  0x80, 0x65, 0xf6, 0x3a, 0x22, 0x00, 0x2f, 0x3d, 0x60, 0x20, 0x3e, 0xbc,
  0x90, 0x6a, 0x2d, 0x3c, 0x58, 0x99, 0x73, 0x3c, 0xf8, 0x8a, 0x7f, 0xbc,
  0x10, 0x95, 0x78, 0xbc, 0xfd, 0xfc, 0x9f, 0x3d, 0xdc, 0xb5, 0xbb, 0xbc,
  0xf7, 0x58, 0x58, 0xbd, 0x40, 0x21, 0x87, 0x3b, 0x92, 0xfd, 0x70, 0xbd,
  0x40, 0x4c, 0x18, 0xbd, 0xf6, 0x3f, 0x25, 0x3d, 0x45, 0x43, 0x9d, 0xbd,
  0x3f, 0xbc, 0x66, 0xbd, 0x66, 0x26, 0x93, 0xbd, 0xc1, 0x0a, 0xd3, 0x3d,
  0x4b, 0x76, 0x9f, 0x3d, 0x08, 0xe9, 0x0a, 0xbc, 0x03, 0xc5, 0xd6, 0x3d,
  0xcf, 0x61, 0xd6, 0x3d, 0x13, 0x8b, 0xb0, 0xbd, 0xba, 0xec, 0x72, 0x3d,
  0xa4, 0x84, 0xe9, 0x3c, 0xcf, 0xd5, 0xd2, 0xbd, 0x48, 0x59, 0x74, 0xbc,
  0x80, 0x98, 0x6b, 0x3a, 0xb6, 0xe5, 0x48, 0x3d, 0xe7, 0xa9, 0xcb, 0xbd,
  0xce, 0x6d, 0x2d, 0x3d, 0x65, 0x89, 0x5f, 0xbd, 0x05, 0xd4, 0xac, 0x3d,
  0x40, 0x16, 0x93, 0x3b, 0xbc, 0xed, 0xd0, 0x3c, 0x82, 0x2f, 0x04, 0xbd,
  0xe2, 0x72, 0x5b, 0x3d, 0xf2, 0x08, 0x56, 0x3d, 0xd0, 0x25, 0xd8, 0xbc,
  0xb6, 0xa8, 0x5a, 0x3d, 0xae, 0x31, 0x2a, 0x3d, 0x43, 0x1c, 0xcd, 0x3d,
  0x90, 0x00, 0x56, 0xbd, 0x1b, 0xca, 0x6f, 0xbd, 0x02, 0xc3, 0x09, 0x3d,
  0x8e, 0x8b, 0x08, 0xbd, 0x0f, 0xe9, 0x9f, 0x3d, 0xa6, 0xf9, 0x96, 0xbd,
  0x3c, 0x4a, 0xb8, 0xbc, 0xde, 0xd8, 0xc1, 0xbd, 0xc8, 0xe1, 0xca, 0xbd,
  0xe8, 0x12, 0xdf, 0xbc, 0xe2, 0x17, 0x6b, 0x3d, 0xe7, 0x60, 0x9e, 0x3d,
  0x50, 0xa0, 0xfe, 0xbc, 0x0e, 0x45, 0x28, 0x3d, 0x51, 0x04, 0x5d, 0xbd,
  0x32, 0x72, 0xaa, 0xbd, 0x37, 0x0f, 0xa6, 0xbd, 0x07, 0xda, 0x9a, 0x3d,
  0x7a, 0x8e, 0x75, 0x3d, 0x95, 0xf8, 0xae, 0x3d, 0xa1, 0x27, 0x86, 0x3d,
  0xd4, 0x73, 0x54, 0xbd, 0x54, 0xa0, 0x93, 0x3c, 0x59, 0xa1, 0x7a, 0xbd,
  0x6d, 0x16, 0xd7, 0x3d, 0x32, 0x80, 0x47, 0x3d, 0xc4, 0xcc, 0x93, 0xbd,
  0x3c, 0x9f, 0xdd, 0x3c, 0x33, 0x9b, 0xda, 0xbd, 0xfc, 0x81, 0x3a, 0xbd,
  0x45, 0xbb, 0x9c, 0x3d, 0xd5, 0xa4, 0x9d, 0xbd, 0x58, 0x60, 0x3f, 0x3c,
  0xb2, 0x2a, 0x6f, 0x3d, 0xfa, 0x64, 0x47, 0x3d, 0xe1, 0x4c, 0x90, 0x3d,
  0x3a, 0x75, 0x77, 0x3d, 0x7c, 0xfd, 0x3d, 0xbd, 0x08, 0xd7, 0x7a, 0xbc,
  0x25, 0xef, 0xc5, 0x3d, 0x89, 0x45, 0xd6, 0x3d, 0x48, 0xf9, 0xde, 0xbd,
  0xf6, 0xbf, 0x78, 0x3d, 0x72, 0x50, 0x50, 0x3d, 0x10, 0xb9, 0x48, 0x3c,
  0xf5, 0xc0, 0xdb, 0x3d, 0x38, 0xb0, 0x00, 0xbd, 0x7a, 0x46, 0xab, 0xbd,
  0x08, 0x02, 0x48, 0xbc, 0xa3, 0x1d, 0xba, 0x3d, 0x66, 0xd6, 0xad, 0xbd,
  0xb6, 0x11, 0x1f, 0x3d, 0x20, 0xa6, 0x72, 0x3b, 0x74, 0xad, 0xb0, 0xbd,
  0xec, 0xaa, 0xf5, 0xbc, 0xdc, 0x4c, 0xe1, 0x3c, 0xde, 0x5e, 0x1a, 0x3d,
  0xd0, 0x00, 0x22, 0xbd, 0x0b, 0x9a, 0xde, 0xbd, 0xc8, 0x0f, 0xac, 0xbd,
  0x9d, 0xea, 0xde, 0x3d, 0x14, 0x73, 0xab, 0x3c, 0xe1, 0x68, 0x80, 0x3d,
  0x5a, 0x37, 0x78, 0x3d, 0x15, 0x3f, 0xd4, 0x3d, 0x8c, 0xb9, 0x84, 0x3c,
  0xa1, 0x0f, 0x8e, 0x3d, 0x5a, 0xfa, 0x6a, 0x3d, 0x49, 0xea, 0x92, 0xbd,
  0x5d, 0x8d, 0x7c, 0xbd, 0xa0, 0x2f, 0xd1, 0xbb, 0x00, 0xc9, 0x3d, 0xbb,
  0x64, 0x71, 0xd7, 0x3c, 0x00, 0x66, 0x77, 0x3b, 0xe0, 0xc4, 0xb0, 0xbd,
  0xf2, 0x4a, 0x76, 0x3d, 0xce, 0x7b, 0x78, 0x3d, 0xd0, 0xc3, 0xbd, 0x3b,
  0x86, 0x44, 0x2c, 0x3d, 0xf5, 0xb2, 0x83, 0xbd, 0x4c, 0x35, 0x39, 0xbd,
  0xe1, 0x82, 0xae, 0xbd, 0x53, 0x9b, 0xd8, 0x3d, 0xbc, 0xc9, 0x8c, 0x3c,
  0x5b, 0x5e, 0xcc, 0x3d, 0x9e, 0x2f, 0x87, 0xbd, 0x50, 0x6e, 0xe5, 0xbc,
  0xec, 0x17, 0x91, 0xbd, 0x9b, 0x3d, 0x9d, 0x3d, 0x2e, 0xc2, 0x26, 0xbd,
  0x5e, 0x99, 0x40, 0x3d, 0x86, 0xb1, 0x49, 0x3d, 0x1d, 0xa3, 0xc2, 0x3d,
  0xb9, 0x9d, 0x80, 0x3d, 0xfa, 0xb7, 0x7e, 0xbd, 0x62, 0xcd, 0x06, 0xbd,
  0xc6, 0xb5, 0x46, 0xbd, 0x88, 0x27, 0x6b, 0x3c, 0xef, 0x48, 0xda, 0x3d,
  0xf2, 0x9f, 0x1f, 0xbd, 0x4e, 0x2a, 0x42, 0x3d, 0x12, 0x91, 0x34, 0xbd,
  0xc6, 0x4e, 0x71, 0x3d, 0x91, 0xed, 0xbd, 0x3d, 0xdd, 0x23, 0xe2, 0x3d,
  0x81, 0xf6, 0xb1, 0x3d, 0xa6, 0xee, 0x7f, 0x3d, 0x20, 0x5e, 0xa0, 0xbb,
  0x62, 0xb4, 0xab, 0xbd, 0xf9, 0x10, 0xcf, 0x3d, 0xe6, 0x52, 0x5a, 0xbd,
  0xa8, 0xcd, 0xc0, 0xbc, 0x00, 0x80, 0x71, 0xb8, 0xac, 0x40, 0xcf, 0xbd,
  0x2a, 0x3d, 0x5d, 0x3d, 0xbe, 0xa4, 0xc6, 0xbd, 0x63, 0x3d, 0xab, 0x3d,
  0xe6, 0xe3, 0x18, 0x3d, 0x68, 0x1f, 0x80, 0xbd, 0x7b, 0x8f, 0xa4, 0x3d,
  0x36, 0xe7, 0x94, 0xbd, 0xec, 0xb4, 0xbf, 0x3c, 0x71, 0x55, 0xdf, 0xbd,
  0xda, 0x79, 0x0a, 0x3d, 0x8f, 0x28, 0xc8, 0x3d, 0x1c, 0x78, 0x2b, 0xbd,
  0x82, 0x22, 0xbb, 0xbd, 0xde, 0xa0, 0x58, 0x3d, 0xf6, 0xe2, 0x9e, 0xbd,
  0x53, 0x27, 0xbc, 0x3d, 0x60, 0x36, 0xea, 0x3b, 0xcd, 0xce, 0x7e, 0xbd,
  0xe3, 0x3f, 0xb9, 0x3d, 0xda, 0x40, 0x9c, 0xbd, 0x1e, 0x58, 0x45, 0x3d,
  0x02, 0xf4, 0x25, 0xbd, 0xeb, 0x2c, 0x9e, 0xbd, 0xe8, 0xfb, 0xae, 0xbd,
  0x31, 0x46, 0xb8, 0x3d, 0xc8, 0x42, 0x16, 0xbc, 0xfc, 0x16, 0xe2, 0xbc,
  0x15, 0x69, 0xd2, 0x3d, 0x1f, 0x30, 0x72, 0xbd, 0xd3, 0x07, 0x8c, 0x3d,
  0x59, 0x92, 0x86, 0xbd, 0xd5, 0x48, 0xc2, 0xbd, 0xf6, 0x4c, 0x71, 0x3d,
  0x09, 0x76, 0xe1, 0xbd, 0xf6, 0x0d, 0x05, 0xbd, 0x8c, 0xbb, 0xfe, 0x3c,
  0x4e, 0xdd, 0x35, 0x3d, 0x76, 0xa5, 0xd3, 0xbd, 0xcf, 0xd2, 0x8e, 0xbd,
  0xd3, 0x5e, 0x87, 0x3d, 0x40, 0x40, 0x48, 0x3c, 0x4c, 0x46, 0xa7, 0xbd,
  0xc0, 0x6f, 0x76, 0xbd, 0xcc, 0xdc, 0xc4, 0x3c, 0x27, 0x87, 0x7e, 0xbd,
  0x68, 0xb0, 0x86, 0xbd, 0x6c, 0x5f, 0x21, 0xbd, 0x47, 0xae, 0x89, 0xbd,
  0xe9, 0x2b, 0xe0, 0x3d, 0x53, 0x90, 0xa4, 0x3d, 0xfe, 0xc7, 0x29, 0xbd,
  0xdb, 0xe1, 0xaf, 0x3d, 0xe5, 0x43, 0x56, 0xbd, 0x7a, 0x37, 0x5e, 0xbd,
  0xf6, 0x83, 0x28, 0x3d, 0xde, 0x9c, 0x36, 0x3d, 0xc4, 0xf5, 0x86, 0x3c,
  0x58, 0xa5, 0x68, 0xbc, 0x58, 0xe8, 0x7d, 0x3c, 0x62, 0x38, 0x6c, 0x3d,
  0x40, 0x6c, 0x24, 0xbc, 0x47, 0x3d, 0xae, 0xbd, 0x14, 0xf7, 0xa3, 0x3c,
  0xee, 0x7c, 0x1d, 0xbd, 0xe7, 0x34, 0x8c, 0xbd, 0x4c, 0xbc, 0xb0, 0xbc,
  0xe2, 0x1d, 0x49, 0x3d, 0x96, 0x7f, 0xa1, 0xbd, 0x2c, 0x68, 0x97, 0xbc,
  0x70, 0x08, 0x9e, 0xbb, 0x1a, 0xb6, 0x25, 0xbd, 0x78, 0xe2, 0xce, 0xbc,
  0x00, 0x0e, 0xa9, 0xbb, 0x10, 0xd3, 0x71, 0xbc, 0x01, 0x73, 0x8e, 0x3d,
  0x5c, 0x99, 0xa9, 0x3c, 0xae, 0x1e, 0x5a, 0x3d, 0x3a, 0x33, 0x4d, 0x3d,
  0x40, 0x5d, 0x62, 0xbc, 0x10, 0x3b, 0x9c, 0x3b, 0x60, 0x10, 0xb4, 0xbd,
  0x82, 0x4a, 0x07, 0xbd, 0x0c, 0x97, 0x08, 0xbd, 0x8c, 0xd3, 0xab, 0xbc,
  0x87, 0xc1, 0xdc, 0x3d, 0xfa, 0xf2, 0xde, 0xbd, 0x60, 0xcf, 0x5e, 0xbd,
  0xa4, 0x63, 0xbd, 0xbd, 0x16, 0x8d, 0x02, 0x3d, 0xa7, 0x7a, 0xc6, 0x3d,
  0x4a, 0x50, 0x43, 0xbd, 0x0a, 0x58, 0x02, 0x3d, 0x4a, 0x01, 0xb3, 0xbd,
  0xbc, 0x60, 0xdb, 0xbc, 0x9e, 0xec, 0x45, 0x3d, 0x80, 0x52, 0x41, 0xbc,
  0x00, 0xa5, 0xf3, 0x3a, 0x0b, 0xc7, 0x81, 0x3d, 0x1a, 0x2b, 0x0e, 0x3d,
  0x20, 0xe3, 0x09, 0xbd, 0x90, 0x87, 0x9d, 0xbd, 0xa4, 0x0f, 0xbf, 0xbc,
  0xc0, 0x26, 0x39, 0xbc, 0x1b, 0x54, 0x88, 0x3d, 0x20, 0x27, 0x6b, 0xbb,
  0x60, 0x62, 0x3e, 0xbc, 0x8d, 0x24, 0xa4, 0x3d, 0x14, 0xb0, 0xc5, 0x3c,
  0x7e, 0x37, 0x00, 0x3d, 0xdc, 0xbf, 0xbf, 0xbd, 0xf7, 0xf0, 0xd0, 0xbd,
  0x07, 0x0b, 0xa0, 0x3d, 0x70, 0xa8, 0x53, 0xbd, 0xf0, 0x39, 0xf7, 0xbb,
  0x69, 0xdb, 0xdb, 0x3d, 0xad, 0x98, 0xbe, 0x3d, 0x58, 0xd5, 0x8d, 0xbd,
  0x24, 0x96, 0x8c, 0x3c, 0x48, 0x32, 0x2e, 0x3c, 0xb4, 0xeb, 0xf8, 0xbc,
  0xfa, 0xf8, 0x06, 0x3d, 0xc0, 0x24, 0xc9, 0x3a, 0xc8, 0x29, 0x90, 0xbd,
  0xfb, 0xcb, 0xd2, 0x3d, 0xb4, 0x3d, 0x84, 0xbd, 0x12, 0x6d, 0x16, 0xbd,
  0xd6, 0x9b, 0x73, 0x3d, 0x9e, 0x4d, 0x74, 0x3d, 0x9d, 0x5e, 0xc5, 0x3d,
  0x18, 0xd2, 0xf2, 0xbc, 0x9e, 0x57, 0xa1, 0xbd, 0x12, 0x3c, 0x26, 0xbd,
  0x76, 0x64, 0x55, 0x3d, 0xff, 0xd1, 0x9a, 0xbd, 0xac, 0xd7, 0xa1, 0xbc,
  0x70, 0x06, 0x82, 0xbd, 0x74, 0x32, 0xc8, 0xbc, 0x50, 0xe9, 0xf0, 0xbc,
  0xa8, 0x2f, 0xd0, 0xbc, 0x37, 0xee, 0xc4, 0xbd, 0xb1, 0x3c, 0x98, 0x3d,
  0x96, 0xf8, 0x2f, 0x3d, 0x7d, 0xb5, 0xd4, 0x3d, 0x33, 0x4c, 0xaf, 0x3d,
  0x8d, 0xeb, 0xd1, 0x3d, 0xd7, 0x2d, 0xb0, 0x3d, 0x4d, 0xd3, 0xbf, 0xbd,
  0xcf, 0x90, 0xb8, 0x3d, 0xa2, 0xfd, 0x22, 0x3d, 0x00, 0x69, 0x54, 0xbc,
  0x55, 0xfe, 0xd7, 0x3d, 0x21, 0x96, 0x90, 0x3d, 0xf2, 0x08, 0x4b, 0xbd,
  0xdc, 0x2c, 0x8a, 0xbc, 0x49, 0xd2, 0xda, 0xbd, 0x3a, 0xc2, 0x46, 0x3d,
  0x55, 0x6a, 0x5c, 0xbd, 0x9c, 0x9f, 0xa3, 0xbc, 0x2a, 0x16, 0x1a, 0x3d,
  0xd4, 0x4f, 0xf6, 0x3c, 0x06, 0x52, 0x9b, 0xbd, 0xb9, 0x18, 0xa3, 0x3d,
  0x5c, 0x36, 0xcd, 0xbd, 0x3d, 0xa7, 0xdc, 0xbd, 0x77, 0xb6, 0xa6, 0x3d,
  0xc0, 0x49, 0xd7, 0xbb, 0x30, 0x4d, 0xeb, 0xbb, 0x51, 0x42, 0xaa, 0x3d,
  0x0c, 0xdf, 0x9c, 0xbc, 0x46, 0xf4, 0x3d, 0xbd, 0x14, 0xff, 0xdc, 0x3c,
  0xa4, 0xe4, 0x88, 0xbd, 0x0f, 0xc4, 0xab, 0x3d, 0x3a, 0x6b, 0x9f, 0xbd,
  0x0d, 0x5d, 0x99, 0x3d, 0x6c, 0xab, 0xe1, 0xbd, 0xbe, 0xdb, 0x92, 0xbd,
  0xc0, 0x74, 0x07, 0x3b, 0x49, 0xdb, 0x86, 0x3d, 0x61, 0x6b, 0x87, 0x3d,
  0x02, 0x1d, 0x65, 0x3d, 0xf6, 0x46, 0x4f, 0x3d, 0xca, 0x5e, 0x5c, 0x3d,
  0x60, 0x67, 0x6e, 0xbc, 0x5c, 0x78, 0x8c, 0x3c, 0x1c, 0xc3, 0xf6, 0xbc,
  0xf0, 0x9c, 0xab, 0xbb, 0x10, 0x2d, 0xb1, 0xbd, 0x78, 0x5c, 0x17, 0x3c,
  0x04, 0x13, 0xa1, 0xbd, 0xec, 0x85, 0xe1, 0xbc, 0xb0, 0x36, 0x03, 0xbd,
  0xa6, 0x41, 0xac, 0xbd, 0x3e, 0xd0, 0x19, 0x3d, 0xff, 0xca, 0xd5, 0x3d,
  0xa4, 0x47, 0xc5, 0x3c, 0x97, 0x12, 0xd1, 0x3d, 0xc8, 0xe0, 0x09, 0xbd,
  0x2b, 0x64, 0xc7, 0x3d, 0x75, 0x39, 0xbb, 0xbd, 0x50, 0x87, 0x80, 0x3b,
  0x3e, 0xab, 0x6e, 0x3d, 0x6a, 0xd0, 0x06, 0x3d, 0x2f, 0x4a, 0xc0, 0xbd,
  0xfe, 0xfc, 0x72, 0x3d, 0x1e, 0x48, 0x02, 0x3d, 0x3a, 0x37, 0x63, 0x3d,
  0x8e, 0x34, 0xa8, 0xbd, 0x3e, 0xad, 0x36, 0xbd, 0x6b, 0x25, 0xb8, 0x3d,
  0x20, 0x3b, 0xb8, 0x3b, 0xd3, 0xa2, 0xe1, 0x3d, 0x1d, 0x05, 0xbf, 0x3d,
  0x4d, 0x34, 0x91, 0x3d, 0x4c, 0xee, 0xef, 0xbc, 0x85, 0x76, 0xa9, 0x3d,
  0x44, 0xbd, 0xa5, 0xbd, 0x71, 0x24, 0xd7, 0xbd, 0x15, 0xf0, 0x8a, 0x3d,
  0x8e, 0xde, 0x43, 0xbd, 0x5b, 0xd4, 0xa4, 0x3d, 0x89, 0x11, 0xad, 0xbd,
  0x5c, 0x35, 0xab, 0xbd, 0x26, 0x7c, 0x31, 0x3d, 0xb6, 0xcb, 0x1b, 0x3d,
  0xd5, 0xb3, 0xc0, 0x3d, 0xd9, 0x70, 0xd9, 0x3d, 0x42, 0xa0, 0x0c, 0xbd,
  0xc2, 0x32, 0x7f, 0x3d, 0xfb, 0xda, 0xd9, 0x3d, 0x8e, 0x13, 0x4f, 0x3d,
  0xb6, 0xb8, 0x95, 0xbd, 0x80, 0x4e, 0xae, 0x3a, 0xfd, 0xea, 0x8a, 0x3d,
  0x7a, 0x32, 0x50, 0x3d, 0xb4, 0x91, 0xaa, 0x3c, 0xf8, 0x67, 0x32, 0xbc,
  0x90, 0x9e, 0x7c, 0xbd, 0x3c, 0x83, 0xd6, 0xbd, 0x1a, 0x7d, 0x79, 0x3d,
  0x8d, 0x57, 0x53, 0xbd, 0x48, 0x2d, 0x3c, 0xbd, 0x4f, 0x5b, 0x97, 0x3d,
  0xd7, 0x36, 0xd9, 0x3d, 0x35, 0x56, 0x8b, 0xbd, 0xf4, 0x16, 0xe3, 0x3c,
  0x50, 0x31, 0xc7, 0xbc, 0x76, 0xb6, 0xc3, 0xbd, 0xea, 0x5a, 0x20, 0xbd,
  0xae, 0x65, 0x8e, 0xbd, 0x4f, 0xf1, 0xd3, 0x3d, 0x29, 0x31, 0xde, 0x3d,
  0x74, 0x76, 0xc1, 0x3c, 0x7b, 0xfc, 0x7e, 0xbd, 0x00, 0xe2, 0xca, 0x3a,
  0x3b, 0x22, 0x74, 0xbd, 0xa2, 0xd4, 0x2e, 0xbd, 0xf4, 0x24, 0x8e, 0xbd,
  0x34, 0x28, 0xaf, 0x3c, 0xc8, 0xa9, 0xfc, 0xbc, 0x14, 0xcb, 0xec, 0x3c,
  0x55, 0xe4, 0x62, 0xbd, 0xd0, 0x86, 0x8f, 0x3b, 0x52, 0xfa, 0x27, 0x3d,
  0xd8, 0x57, 0x78, 0x3c, 0xb9, 0xef, 0x95, 0x3d, 0xae, 0x24, 0x6f, 0xbd,
  0xa0, 0xb3, 0x84, 0xbd, 0x05, 0x5f, 0xc3, 0x3d, 0x94, 0x85, 0x96, 0xbd,
  0x5e, 0x1b, 0x53, 0x3d, 0xeb, 0xcc, 0xb1, 0xbd, 0x6c, 0x3a, 0x6d, 0xbd,
  0xcd, 0xb3, 0x8a, 0x3d, 0x29, 0xd0, 0x80, 0x3d, 0x56, 0x52, 0x94, 0xbd,
  0xeb, 0x1a, 0xe3, 0xbd, 0x31, 0xa7, 0xa3, 0x3d, 0x1c, 0x1e, 0xf8, 0xbc,
  0x2c, 0x66, 0xe1, 0x3c, 0x2c, 0x82, 0xa9, 0x3c, 0xf0, 0xb5, 0xd9, 0x3b,
  0xe2, 0xfa, 0x1b, 0x3d, 0x3e, 0x9f, 0x76, 0x3d, 0xe6, 0x78, 0xb1, 0xbd,
  0x0e, 0xae, 0x5c, 0xbd, 0xdd, 0x28, 0xc2, 0x3d, 0x99, 0xd9, 0x90, 0x3d,
  0x32, 0xf1, 0x64, 0x3d, 0x52, 0x57, 0x57, 0x3d, 0x9f, 0xeb, 0xaf, 0x3d,
  0x1c, 0x59, 0x9a, 0x3c, 0xc6, 0xa5, 0x3f, 0xbd, 0xb6, 0xd0, 0x64, 0x3d,
  0x7a, 0xc3, 0x3b, 0xbd, 0x36, 0xaf, 0x09, 0x3d, 0x90, 0x28, 0x8e, 0xbc,
  0x08, 0xfe, 0x62, 0xbc, 0xc0, 0xf7, 0x79, 0xbd, 0x18, 0xf7, 0x6b, 0xbc,
  0xf5, 0x68, 0xd9, 0xbd, 0x6b, 0x96, 0x8c, 0x3d, 0x66, 0x24, 0x01, 0xbd,
  0x6a, 0xc7, 0x5b, 0xbd, 0x60, 0x7a, 0x77, 0xbc, 0x5b, 0x7f, 0xd2, 0xbd,
  0x4e, 0xe4, 0x28, 0xbd, 0x64, 0x9a, 0xb4, 0xbc, 0x38, 0x9d, 0xde, 0xbc,
  0xda, 0x99, 0x96, 0xbd, 0xec, 0x65, 0xd1, 0x3c, 0x86, 0x60, 0x05, 0xbd,
  0x5a, 0x61, 0x79, 0x3d, 0x7e, 0xf8, 0xb4, 0xbd, 0xb1, 0x6e, 0x75, 0xbd,
  0x9c, 0x42, 0xfe, 0x3c, 0xfa, 0xb6, 0xe1, 0xbd, 0x6c, 0x36, 0xcb, 0xbc,
  0x25, 0xa5, 0xc4, 0x3d, 0xc0, 0xf6, 0x8c, 0x3a, 0x32, 0x8b, 0x31, 0x3d,
  0x9c, 0x25, 0xa5, 0xbd, 0x6e, 0xb0, 0x08, 0x3d, 0xb2, 0x7f, 0x16, 0x3d,
  0x3e, 0xbf, 0x36, 0x3d, 0xa4, 0xa2, 0xaa, 0xbd, 0x9c, 0xf8, 0xfe, 0x3c,
  0x87, 0xf3, 0xb1, 0xbd, 0xa6, 0x55, 0x64, 0x3d, 0x75, 0x17, 0xa4, 0x3d,
  0x4b, 0xf1, 0xd8, 0xbd, 0xeb, 0xfa, 0x4a, 0xbd, 0x42, 0x73, 0xbd, 0xbd,
  0x9c, 0xe4, 0xf3, 0x3c, 0x9a, 0x8a, 0xce, 0xbd, 0xf4, 0x1e, 0xe3, 0xbd,
  0x36, 0xbf, 0xab, 0xbd, 0xf7, 0x4e, 0x8d, 0x3d, 0x4d, 0x40, 0xc3, 0x3d,
  0xa7, 0x1a, 0xa8, 0x3d, 0xba, 0xaf, 0x69, 0x3d, 0xb0, 0xb8, 0xe5, 0x3b,
  0x6a, 0x6f, 0xc1, 0xbd, 0xfe, 0xf9, 0x62, 0x3d, 0x9e, 0x71, 0x02, 0x3d,
  0xec, 0xeb, 0xf6, 0x3c, 0x38, 0x6d, 0x9f, 0xbd, 0xda, 0xbc, 0x4b, 0x3d,
  0x0c, 0xe6, 0x86, 0xbd, 0x1e, 0xb4, 0x67, 0xbd, 0x7b, 0xd6, 0x9a, 0x3d,
  0x9c, 0x17, 0xdc, 0xbc, 0x15, 0x06, 0xc9, 0x3d, 0xc0, 0xc4, 0x90, 0xbd,
  0x04, 0x70, 0xab, 0x3c, 0x9c, 0x85, 0x9f, 0xbc, 0x02, 0x5d, 0x06, 0x3d,
  0xc6, 0x08, 0x88, 0xbd, 0xac, 0x2a, 0x8b, 0xbd, 0xfd, 0x7f, 0xa4, 0xbd,
  0xf2, 0x24, 0x12, 0x3d, 0x6c, 0x7b, 0xf2, 0x3c, 0xba, 0x62, 0x05, 0x3d,
  0x52, 0x81, 0x5c, 0x3d, 0x49, 0x3e, 0x85, 0x3d, 0x80, 0x06, 0xbd, 0xbc,
  0xb8, 0x45, 0x70, 0x3c, 0x33, 0x5f, 0x87, 0x3d, 0xac, 0x38, 0xf2, 0x3c,
  0x41, 0xa3, 0x8d, 0xbd, 0x61, 0xd5, 0xcb, 0x3d, 0x58, 0xf0, 0xb6, 0xbc,
  0x38, 0x33, 0x21, 0xbc, 0x8c, 0x98, 0xc8, 0xbc, 0xd4, 0x7f, 0xd8, 0xbc,
  0x24, 0xa1, 0xa6, 0xbd, 0x7e, 0xbc, 0x32, 0xbd, 0x3a, 0x8a, 0xcb, 0xbd,
  0x08, 0x4d, 0x55, 0xbc, 0x76, 0x40, 0x78, 0x3d, 0x18, 0x62, 0xa4, 0xbd,
  0xb1, 0x42, 0x8a, 0x3d, 0x95, 0x7e, 0xa8, 0xbd, 0xa5, 0x86, 0xb5, 0x3d,
  0x9c, 0xbd, 0xf4, 0xbc, 0xe6, 0x83, 0x4f, 0x3d, 0xa4, 0xcf, 0x77, 0xbd,
  0x57, 0xde, 0xd4, 0x3d, 0x2e, 0x98, 0x1c, 0xbd, 0x03, 0x8b, 0xb8, 0x3d,
  0x39, 0xb8, 0x91, 0x3d, 0xb7, 0x55, 0xa9, 0x3d, 0x44, 0xe0, 0xc7, 0x3c,
  0xfa, 0xa7, 0x70, 0xbd, 0x8e, 0x39, 0x06, 0xbd, 0x52, 0x0e, 0x77, 0x3d,
  0xd4, 0xe4, 0xca, 0x3c, 0xc4, 0x94, 0xd4, 0xbc, 0xe6, 0x72, 0x92, 0xbd,
  0x19, 0x37, 0x4d, 0xbd, 0x78, 0xcc, 0x62, 0xbc, 0xe2, 0x94, 0x3b, 0x3d,
  0x8a, 0x33, 0xc0, 0xbd, 0xba, 0x31, 0x16, 0xbd, 0xf9, 0xf0, 0x86, 0x3d,
  0x00, 0xca, 0x5e, 0xb9, 0x19, 0xda, 0x94, 0x3d, 0xc6, 0xcf, 0x4c, 0xbd,
  0x7f, 0xd5, 0xaa, 0xbd, 0x73, 0xe2, 0xb3, 0xbd, 0x20, 0x9f, 0x0a, 0xbd,
  0xf8, 0xe3, 0xde, 0xbc, 0x4e, 0x33, 0x5a, 0x3d, 0x32, 0x69, 0x9c, 0xbd,
  0x92, 0xa1, 0x08, 0x3d, 0x1d, 0x58, 0xc6, 0xbd, 0x74, 0x9d, 0xbe, 0x3c,
  0xb5, 0x0c, 0xde, 0x3d, 0x68, 0x1d, 0x63, 0x3c, 0xe2, 0x1a, 0x33, 0xbd,
  0x8f, 0x51, 0xbb, 0x3d, 0x89, 0x03, 0xc2, 0x3d, 0x8c, 0x60, 0xac, 0x3c,
  0xc7, 0x7d, 0xda, 0x3d, 0xa7, 0x4c, 0x97, 0xbd, 0xd4, 0xdc, 0x95, 0xbd,
  0xc5, 0xa1, 0x76, 0xbd, 0xdd, 0x11, 0x73, 0xbd, 0x79, 0xd4, 0xd7, 0xbd,
  0xd0, 0x6e, 0xee, 0xbb, 0xe4, 0xe7, 0xe1, 0xbc, 0x88, 0x71, 0x26, 0xbc,
  0x68, 0x9a, 0xae, 0xbc, 0x12, 0x70, 0xbd, 0xbd, 0xdc, 0x14, 0x11, 0xbd,
  0x72, 0xd6, 0x1f, 0xbd, 0x82, 0xbf, 0x5e, 0xbd, 0xde, 0x8a, 0x67, 0x3d,
  0x9f, 0xfd, 0x7f, 0xbd, 0x00, 0xbe, 0x45, 0xb9, 0x61, 0x21, 0xd5, 0x3d,
  0x99, 0x09, 0xd2, 0x3d, 0xd3, 0x7f, 0xbc, 0xbd, 0x9a, 0x92, 0x03, 0xbd,
  0x1d, 0xaf, 0xa0, 0x3d, 0xf0, 0xc7, 0xac, 0xbd, 0xa0, 0xaf, 0x84, 0xbc,
  0xd2, 0x85, 0x47, 0xbd, 0x62, 0x53, 0x4e, 0x3d, 0xc7, 0x0e, 0x95, 0xbd,
  0x8a, 0xb0, 0x0c, 0x3d, 0x13, 0xa1, 0x9b, 0xbd, 0x57, 0x68, 0xa8, 0xbd,
  0x30, 0x16, 0x4f, 0xbc, 0xc6, 0xd9, 0x0a, 0xbd, 0x68, 0x00, 0xca, 0xbc,
  0x52, 0xd7, 0x75, 0x3d, 0xd6, 0x44, 0xaf, 0xbd, 0xd8, 0x4a, 0x73, 0x3c,
  0x2d, 0xe8, 0xc5, 0x3d, 0x02, 0xd1, 0x97, 0xbd, 0x68, 0x6f, 0x0f, 0xbc,
  0xda, 0xd6, 0x6d, 0x3d, 0x3e, 0xc3, 0x1f, 0x3d, 0x9c, 0x53, 0xd1, 0x3c,
  0x8e, 0x1f, 0x03, 0xbd, 0x8b, 0x84, 0xda, 0x3d, 0x71, 0xfc, 0xbf, 0x3d,
  0x85, 0x47, 0x99, 0x3d, 0x42, 0x7d, 0x60, 0x3d, 0x5d, 0x52, 0xcb, 0x3d,
  0xca, 0x6f, 0x14, 0x3d, 0xb7, 0x6a, 0x70, 0xbd, 0x80, 0x77, 0xa8, 0x3b,
  0x9f, 0x7b, 0xdb, 0xbd, 0xac, 0x8f, 0x79, 0xbd, 0xd6, 0x78, 0x1b, 0x3d,
  0xbc, 0x37, 0x8d, 0xbc, 0x5c, 0xb6, 0xc5, 0x3c, 0xee, 0x1b, 0x90, 0xbd,
  0x2e, 0x19, 0xbf, 0xbd, 0xe7, 0x39, 0xba, 0xbd, 0x44, 0xca, 0xc3, 0xbd,
  0x52, 0x00, 0x15, 0xbd, 0xa9, 0x17, 0x86, 0x3d, 0x8d, 0x78, 0xb1, 0xbd,
  0xe7, 0xcf, 0xdd, 0xbd, 0x12, 0x02, 0x15, 0xbd, 0x9c, 0xfb, 0x1e, 0xbd,
  0xde, 0x6f, 0x2e, 0xbd, 0x98, 0x80, 0x29, 0x3c, 0x62, 0x4a, 0x9e, 0xbd,
  0x61, 0xbd, 0xc4, 0xbd, 0xc3, 0xbe, 0xd0, 0x3d, 0xc0, 0x49, 0x18, 0xbc,
  0x5f, 0x4e, 0xbd, 0x3d, 0x77, 0xbc, 0xd6, 0x3d, 0x6e, 0x22, 0xad, 0xbd,
  0xaa, 0x21, 0x10, 0x3d, 0x24, 0x63, 0x9a, 0x3c, 0x0c, 0x52, 0xc0, 0xbd,
  0xb2, 0x19, 0x68, 0x3d, 0x71, 0x32, 0x80, 0x3d, 0x5f, 0xee, 0x77, 0xbd,
  0x08, 0x71, 0xbc, 0xbc, 0x4c, 0x67, 0xf7, 0x3c, 0x00, 0x26, 0x5d, 0x39,
  0xc6, 0x7f, 0x13, 0x3d, 0xd0, 0x6b, 0x6b, 0xbc, 0x25, 0x62, 0xe2, 0x3d,
  0x26, 0x4d, 0x02, 0x3d, 0x42, 0xa0, 0xd0, 0xbd, 0x48, 0x2a, 0x60, 0x3c,
  0x53, 0x16, 0x8d, 0x3d, 0xce, 0xc7, 0x12, 0x3d, 0x18, 0x80, 0xf8, 0xbc,
  0xd7, 0xc1, 0xad, 0x3d, 0x5a, 0x51, 0xdb, 0xbd, 0x76, 0xa3, 0x17, 0xbd,
  0x1d, 0x1b, 0x8f, 0x3d, 0xfb, 0x61, 0xdc, 0x3d, 0xb8, 0x28, 0x55, 0xbc,
  0x54, 0x21, 0xfa, 0xbc, 0x47, 0x7d, 0xbc, 0x3d, 0xd2, 0xce, 0x1b, 0xbd,
  0x85, 0x21, 0xb2, 0x3d, 0x1a, 0x52, 0x8d, 0xbd, 0xde, 0xe1, 0xc4, 0xbd,
  0xe8, 0xa1, 0xa4, 0xbd, 0xac, 0xa2, 0x87, 0x3c, 0xf1, 0x85, 0x66, 0xbd,
  0x36, 0xe9, 0x5e, 0x3d, 0x80, 0xbf, 0xaf, 0xbc, 0xe0, 0x9a, 0x21, 0x3c,
  0x00, 0x54, 0x5a, 0xbc, 0x3d, 0x26, 0xb6, 0xbd, 0xce, 0x63, 0x0f, 0x3d,
  0x0f, 0x49, 0xbb, 0x3d, 0xb0, 0xdc, 0x11, 0xbc, 0x9d, 0xf5, 0xac, 0x3d,
  0x19, 0x81, 0xab, 0xbd, 0x3e, 0x68, 0x3a, 0x3d, 0xbc, 0xbf, 0xa7, 0xbc,
  0x68, 0x5d, 0xbf, 0xbc, 0x23, 0xb8, 0xb6, 0xbd, 0x58, 0x9c, 0x5f, 0xbc,
  0xd0, 0xa8, 0x53, 0xbc, 0x90, 0xbf, 0xea, 0xbb, 0x4a, 0xe3, 0x13, 0x3d,
  0xfa, 0x2e, 0xbd, 0xbd, 0xfa, 0x06, 0x31, 0x3d, 0xb6, 0x0a, 0x9b, 0xbd,
  0x54, 0x90, 0xd3, 0xbc, 0xb1, 0x6d, 0xd2, 0xbd, 0x6f, 0x81, 0xda, 0x3d,
  0x48, 0xfb, 0x3d, 0xbc, 0x0e, 0x32, 0x4c, 0x3d, 0x38, 0x76, 0xc1, 0xbd,
  0x0a, 0x91, 0x2f, 0x3d, 0xee, 0xde, 0x95, 0xbd, 0xe2, 0xc1, 0x49, 0x3d,
  0xce, 0xab, 0x20, 0x3d, 0x34, 0x09, 0x02, 0xbd, 0xe0, 0xf1, 0xe2, 0xbd,
  0x83, 0x29, 0x96, 0xbd, 0x76, 0xa2, 0x7d, 0xbd, 0xfd, 0x24, 0xcd, 0x3d,
  0x1c, 0xbf, 0xa0, 0xbd, 0x58, 0xd2, 0xc4, 0xbc, 0x80, 0x04, 0xa2, 0xba,
  0xf5, 0x58, 0x96, 0x3d, 0x4b, 0xd0, 0x88, 0xbd, 0x58, 0x34, 0xf9, 0xbc,
  0xa2, 0x70, 0xc9, 0xbd, 0xac, 0xf5, 0xd6, 0xbc, 0x80, 0x2e, 0x3a, 0x3c,
  0x60, 0x95, 0xda, 0xbc, 0xed, 0xaf, 0xb8, 0xbd, 0x42, 0x51, 0x20, 0xbd,
  0x4a, 0xdc, 0x21, 0xbd, 0xb0, 0xa3, 0x46, 0xbd, 0x31, 0x17, 0x58, 0xbd,
  0x5a, 0x91, 0x2d, 0xbd, 0x9e, 0xcc, 0xa3, 0xbd, 0xea, 0x09, 0x5e, 0x3d,
  0x1e, 0x22, 0x34, 0xbd, 0x72, 0xce, 0x3f, 0xbd, 0x32, 0x97, 0x3c, 0xbd,
  0x6c, 0xa1, 0x92, 0x3c, 0x10, 0x8b, 0xd8, 0xbb, 0xde, 0x11, 0x2e, 0xbd,
  0x74, 0xe8, 0xb2, 0xbc, 0xcc, 0x55, 0xb7, 0x3c, 0x00, 0x73, 0xa4, 0x39,
  0x70, 0xd6, 0x64, 0xbc, 0x00, 0x83, 0x1c, 0xbb, 0x95, 0xe1, 0x96, 0x3d,
  0x8e, 0x1a, 0x2f, 0xbd, 0xdb, 0xf0, 0x97, 0x3d, 0xc1, 0x82, 0x8b, 0x3d,
  0x30, 0x5b, 0x92, 0x3b, 0xa9, 0xb1, 0xc0, 0x3d, 0x48, 0xd2, 0x7b, 0xbd,
  0x7a, 0x25, 0xb1, 0xbd, 0xe2, 0x3e, 0x29, 0x3d, 0xe0, 0xba, 0x54, 0xbb,
  0x19, 0x3f, 0xcb, 0x3d, 0xe4, 0x4f, 0xa9, 0xbc, 0xdd, 0x58, 0xad, 0xbd,
  0x6a, 0x27, 0x5d, 0x3d, 0x16, 0x9a, 0x6e, 0x3d, 0x2c, 0xa4, 0xc3, 0x3c,
  0x09, 0x4d, 0xdc, 0xbd, 0xce, 0x4c, 0x96, 0xbd, 0x6c, 0x21, 0x3f, 0xbd,
  0xa4, 0x62, 0xe0, 0x3c, 0xf4, 0x92, 0xf6, 0x3c, 0xff, 0xda, 0xde, 0x3d,
  0x6e, 0x1a, 0xc8, 0xbd, 0x4a, 0x6e, 0x5a, 0x3d, 0xb5, 0x11, 0x9e, 0x3d,
  0xec, 0x05, 0x85, 0xbc, 0x06, 0xda, 0x40, 0xbd, 0xf0, 0xa9, 0x34, 0x3c,
  0x33, 0x28, 0xbc, 0x3d, 0x6c, 0x9d, 0x7d, 0xbd, 0xce, 0x89, 0x36, 0xbd,
  0x27, 0x97, 0xd3, 0x3d, 0xb0, 0x5f, 0x08, 0x3c, 0xfc, 0xc5, 0x91, 0x3c,
  0x04, 0x24, 0x82, 0x3c, 0xaa, 0x82, 0x98, 0xbd, 0xff, 0x00, 0xbb, 0x3d,
  0x24, 0x0b, 0xd3, 0xbd, 0x4c, 0x96, 0x82, 0x3c, 0x8b, 0x9a, 0x83, 0x3d,
  0xbf, 0x87, 0x83, 0x3d, 0xe6, 0xa7, 0x69, 0x3d, 0xae, 0xbc, 0x89, 0xbd,
  0x44, 0x55, 0x20, 0xbd, 0x01, 0xff, 0x9f, 0x3d, 0x91, 0xc5, 0xb8, 0xbd,
  0x50, 0x1f, 0xb8, 0xbc, 0x35, 0x04, 0x83, 0x3d, 0x9d, 0xc8, 0xc0, 0x3d,
  0x20, 0xe8, 0xed, 0x3b, 0x8d, 0xa2, 0xb3, 0x3d, 0xd4, 0x0f, 0x80, 0xbd,
  0xc1, 0x2d, 0x85, 0x3d, 0x00, 0x16, 0x4c, 0x39, 0x60, 0x94, 0x09, 0xbd,
  0xf0, 0x5f, 0xbe, 0x3b, 0x48, 0x31, 0x61, 0xbc, 0xac, 0x32, 0xac, 0x3c,
  0xdf, 0x6d, 0x80, 0xbd, 0xab, 0x72, 0xa0, 0x3d, 0xbd, 0xac, 0x9a, 0x3d,
  0x80, 0xfb, 0xe4, 0x3a, 0x42, 0xe1, 0x02, 0xbd, 0x1d, 0xc7, 0xd3, 0xbd,
  0xbf, 0xc2, 0xb4, 0x3d, 0x68, 0x74, 0x2f, 0xbd, 0x7a, 0x8a, 0x05, 0x3d,
  0xa8, 0x8e, 0x0d, 0xbc, 0x3e, 0xad, 0x66, 0x3d, 0x66, 0x99, 0x3a, 0x3d,
  0x34, 0x94, 0xe4, 0x3c, 0xe8, 0x67, 0xaa, 0xbd, 0xbe, 0x46, 0x8a, 0xbd,
  0x58, 0x4e, 0xa5, 0xbd, 0xd1, 0x7a, 0x98, 0xbd, 0xa8, 0x5b, 0x69, 0xbd,
  0xc6, 0xf2, 0x6d, 0x3d, 0xd2, 0x26, 0x74, 0xbd, 0xd2, 0xdd, 0x4e, 0x3d,
  0x9e, 0x90, 0x14, 0x3d, 0xd1, 0xd0, 0xc9, 0xbd, 0x1e, 0x57, 0x00, 0x3d,
  0xef, 0x86, 0x7a, 0xbd, 0x60, 0x57, 0xa2, 0xbc, 0xc5, 0xd9, 0x79, 0xbd,
  0xa7, 0x56, 0xe1, 0xbd, 0x8c, 0x82, 0xc2, 0xbd, 0xec, 0x92, 0xc0, 0x3c,
  0x0e, 0xd7, 0x2b, 0x3d, 0xb0, 0xa9, 0xd9, 0x3b, 0x8a, 0x62, 0x60, 0xbd,
  0x8a, 0x6f, 0x81, 0xbd, 0x3f, 0xa5, 0xa0, 0x3d, 0x6d, 0xa6, 0xb0, 0x3d,
  0x46, 0xbb, 0x1e, 0x3d, 0x94, 0x5c, 0xd6, 0x3c, 0x32, 0xdd, 0x37, 0x3d,
  0x6c, 0x75, 0x8d, 0xbc, 0xec, 0x82, 0xad, 0xbd, 0xaa, 0x8e, 0x0b, 0x3d,
  0xca, 0xdc, 0x63, 0xbd, 0x86, 0xcd, 0x0c, 0xbd, 0xd6, 0x92, 0xbb, 0xbd,
  0x72, 0x08, 0x18, 0xbd, 0x74, 0xfb, 0x81, 0xbd, 0x3e, 0x11, 0x49, 0x3d,
  0x18, 0xa5, 0xae, 0xbc, 0x03, 0xa3, 0xb2, 0x3d, 0x10, 0xef, 0x47, 0xbd,
  0xc6, 0x50, 0x92, 0xbd, 0x6c, 0xd2, 0xc1, 0xbc, 0x09, 0x9f, 0xcd, 0x3d,
  0x75, 0xce, 0xd9, 0x3d, 0xaf, 0x66, 0x8e, 0x3d, 0x92, 0x73, 0x2f, 0x3d,
  0xce, 0x3b, 0x18, 0x3d, 0x31, 0x6c, 0x9a, 0x3d, 0x93, 0x67, 0xa9, 0x3d,
  0xf4, 0x8a, 0x8e, 0x3c, 0xa6, 0x69, 0x09, 0xbd, 0x68, 0xde, 0x1b, 0xbc,
  0xca, 0xbf, 0x13, 0x3d, 0xd6, 0xe2, 0x46, 0x3d, 0xb0, 0x54, 0xc2, 0xbc,
  0x4b, 0x68, 0xd2, 0xbd, 0xd7, 0x1d, 0x8d, 0x3d, 0xe1, 0xf1, 0x9e, 0x3d,
  0x67, 0xe9, 0x58, 0xbd, 0x43, 0x1f, 0xde, 0xbd, 0x0a, 0x76, 0xbb, 0xbd,
  0x68, 0x92, 0x6e, 0xbd, 0xb6, 0x84, 0x47, 0x3d, 0x18, 0xfd, 0x67, 0xbc,
  0x5d, 0xfd, 0x55, 0xbd, 0xfb, 0x01, 0xb7, 0x3d, 0x16, 0x20, 0x07, 0x3d,
  0x83, 0xa5, 0xd4, 0x3d, 0x9a, 0x43, 0x08, 0x3d, 0x66, 0xc0, 0xc1, 0xbd,
  0x28, 0xca, 0x76, 0x3c, 0x56, 0xc5, 0xc6, 0xbd, 0x0e, 0xd4, 0x5e, 0x3d,
  0x8a, 0xec, 0x66, 0x3d, 0xcf, 0x5f, 0xe0, 0xbd, 0x80, 0x84, 0xac, 0xbb,
  0x4d, 0x85, 0xad, 0x3d, 0x6a, 0xc0, 0x3d, 0x3d, 0xfb, 0xe5, 0x95, 0x3d,
  0xf2, 0xed, 0xb4, 0xbd, 0x78, 0x05, 0x58, 0x3c, 0x3e, 0x1a, 0x6c, 0x3d,
  0x8c, 0xed, 0xaf, 0xbc, 0xe4, 0x5d, 0x96, 0xbc, 0x70, 0x7a, 0xd9, 0xbb,
  0x71, 0xe9, 0xe1, 0x3d, 0x51, 0x27, 0xa9, 0xbd, 0xba, 0x6d, 0xe0, 0xbd,
  0x9b, 0x5d, 0x9d, 0x3d, 0xfd, 0xa2, 0x49, 0xbd, 0x5e, 0x09, 0x70, 0x3d,
  0xf2, 0x05, 0x04, 0xbd, 0x48, 0x68, 0x4c, 0xbd, 0xb4, 0x3b, 0x9c, 0x3c,
  0xf4, 0xa9, 0x33, 0xbd, 0xdd, 0x8e, 0x93, 0x3d, 0x58, 0x33, 0x42, 0xbd,
  0x1b, 0xf9, 0xd1, 0xbd, 0x42, 0xc8, 0x57, 0x3d, 0xcf, 0x8b, 0xbb, 0x3d,
  0x34, 0xcb, 0xd2, 0xbc, 0xfe, 0x26, 0x0a, 0x3d, 0xa4, 0xab, 0xd4, 0xbc,
  0x94, 0xf6, 0xc1, 0xbd, 0xcc, 0x41, 0xde, 0x3c, 0xb5, 0xf6, 0xbb, 0xbd,
  0xde, 0x88, 0x18, 0x3d, 0x4e, 0x09, 0x54, 0xbd, 0xad, 0x2e, 0xb8, 0x3d,
  0x97, 0xb8, 0xde, 0x3d, 0xff, 0xbb, 0xe0, 0x3d, 0xb7, 0x1d, 0xdd, 0xbd,
  0x4e, 0x0e, 0x04, 0x3d, 0x76, 0x29, 0x08, 0xbd, 0x83, 0x2c, 0x9d, 0x3d,
  0xb0, 0x08, 0xd7, 0x3b, 0xec, 0x23, 0xa5, 0xbd, 0x38, 0xa1, 0xb5, 0xbc,
  0x94, 0x95, 0x84, 0x3c, 0x50, 0x28, 0x81, 0x3b, 0x25, 0xc2, 0x94, 0x3d,
  0xbd, 0xf8, 0xdd, 0x3d, 0xa0, 0x47, 0x5f, 0xbc, 0x70, 0x03, 0x93, 0xbd,
  0x7f, 0x4b, 0xb6, 0xbd, 0x2a, 0x31, 0x0d, 0x3d, 0x5e, 0xa5, 0x93, 0xbd,
  0x86, 0x24, 0x8b, 0xbd, 0x48, 0xc8, 0xd2, 0xbd, 0x3c, 0xc6, 0xd1, 0x3c,
  0xda, 0x12, 0x84, 0xbd, 0x90, 0xe3, 0xa0, 0xbc, 0x8e, 0xe2, 0x2d, 0x3d,
  0xa8, 0x33, 0xa9, 0xbc, 0xaf, 0x7c, 0x95, 0xbd, 0xe5, 0x1f, 0x80, 0x3d,
  0x97, 0x6f, 0x8e, 0xbd, 0x1d, 0xea, 0xd9, 0xbd, 0x08, 0x56, 0x56, 0xbc,
  0x43, 0x46, 0x81, 0xbd, 0x44, 0x67, 0xa3, 0xbc, 0x87, 0x47, 0x72, 0xbd,
  0x98, 0x3b, 0xcb, 0xbd, 0xe4, 0xb0, 0x9e, 0xbc, 0x68, 0x83, 0x85, 0xbc,
  0x04, 0x1d, 0x9d, 0xbc, 0x98, 0xb1, 0x26, 0xbd, 0x21, 0xe0, 0xa6, 0xbd,
  0x5a, 0xe1, 0x68, 0x3d, 0x72, 0xbb, 0xbe, 0xbd, 0xf1, 0xe9, 0xa6, 0x3d,
  0x98, 0x2b, 0x9c, 0xbd, 0x95, 0x78, 0xc8, 0xbd, 0x6a, 0x40, 0xde, 0xbd,
  0x1c, 0x10, 0x33, 0xbd, 0x5f, 0x67, 0xb6, 0x3d, 0x5c, 0x59, 0xa1, 0xbc,
  0x2d, 0x89, 0xa2, 0x3d, 0xf8, 0x3c, 0x1d, 0xbd, 0xe5, 0x9a, 0x71, 0xbd,
  0xba, 0xe4, 0xb9, 0xbd, 0xe5, 0x42, 0xd8, 0x3d, 0xf3, 0xfb, 0xaf, 0x3d,
  0xb5, 0x0b, 0xc7, 0x3d, 0x04, 0x73, 0xde, 0x3c, 0x3a, 0xe6, 0x26, 0xbd,
  0xc0, 0xa5, 0xbf, 0xbd, 0xdf, 0xf5, 0x5c, 0xbd, 0x88, 0xac, 0x9d, 0xbd,
  0xac, 0xec, 0xb4, 0x3c, 0x6a, 0x91, 0x23, 0xbd, 0x3c, 0x9a, 0x26, 0xbd,
  0xcf, 0xe7, 0x6b, 0xbd, 0x89, 0xb0, 0x84, 0x3d, 0xbe, 0x4e, 0x6b, 0xbd,
  0x91, 0x97, 0xb6, 0x3d, 0x1e, 0x08, 0x49, 0x3d, 0xd8, 0x0a, 0x6b, 0x3c,
  0xa2, 0xdf, 0x5a, 0xbd, 0x35, 0x37, 0xb3, 0xbd, 0xfa, 0xa4, 0x02, 0x3d,
  0x7f, 0x6c, 0x92, 0x3d, 0x62, 0xbd, 0x9d, 0xbd, 0x18, 0xb9, 0x5a, 0x3c,
  0xc0, 0x6f, 0x83, 0xbb, 0x3c, 0x9d, 0xb3, 0xbd, 0x48, 0xf3, 0x15, 0x3c,
  0x80, 0x3e, 0xa3, 0x3b, 0x82, 0xb9, 0x48, 0xbd, 0x70, 0xa2, 0x5c, 0x3c,
  0xa2, 0x56, 0x5c, 0x3d, 0xfc, 0x17, 0x39, 0xbd, 0xac, 0x19, 0x82, 0xbd,
  0x14, 0xdd, 0xf3, 0x3c, 0xce, 0xd0, 0x0d, 0xbd, 0xe3, 0xe8, 0xa2, 0xbd,
  0xad, 0xc5, 0xd9, 0xbd, 0x17, 0x32, 0xc6, 0x3d, 0xc0, 0xac, 0xa0, 0xbd,
  0x18, 0x3e, 0x83, 0xbc, 0xeb, 0x2e, 0xd9, 0x3d, 0x2f, 0x8d, 0xe2, 0x3d,
  0xda, 0x0e, 0xa1, 0xbd, 0x15, 0x5e, 0x91, 0x3d, 0xc0, 0x3a, 0x81, 0xbd,
  0x98, 0xeb, 0x21, 0x3c, 0x0d, 0xda, 0xbb, 0x3d, 0xc2, 0x70, 0x3a, 0x3d,
  0x9a, 0xe2, 0xb6, 0xbd, 0x7a, 0x62, 0x35, 0x3d, 0x04, 0x50, 0x89, 0x3c,
  0xa3, 0x26, 0xde, 0x3d, 0x7a, 0x20, 0x9e, 0xbd, 0xb9, 0x75, 0xd4, 0xbd,
  0xa4, 0x5d, 0xb1, 0x3c, 0xe9, 0x68, 0xc6, 0xbd, 0xdc, 0x5d, 0x8e, 0xbd,
  0x9e, 0x37, 0x9f, 0xbd, 0xc8, 0x61, 0x63, 0xbc, 0x24, 0xd6, 0xaa, 0x3c,
  0xd7, 0x17, 0x4a, 0xbd, 0xe4, 0x19, 0x97, 0xbc, 0xc0, 0x41, 0x24, 0xbd,
  0x18, 0x98, 0xe4, 0xbc, 0xdc, 0x05, 0xa8, 0xbd, 0x81, 0x54, 0x9a, 0x3d,
  0xd5, 0xe2, 0x8a, 0x3d, 0xd2, 0x9e, 0x9d, 0xbd, 0x86, 0x40, 0xc1, 0xbd,
  0x80, 0x45, 0xff, 0x3b, 0x47, 0x18, 0xa0, 0xbd, 0xb8, 0x6e, 0xd8, 0xbd,
  0x15, 0x78, 0xe1, 0xbd, 0xb8, 0x2c, 0x52, 0x3c, 0x6f, 0xc7, 0x82, 0x3d,
  0x8d, 0xb0, 0x96, 0x3d, 0xed, 0x28, 0x52, 0xbd, 0x7c, 0x5f, 0x89, 0x3c,
  0x97, 0xca, 0xb6, 0x3d, 0x98, 0x5a, 0xc6, 0xbc, 0x2a, 0x80, 0x1e, 0x3d,
  0xc6, 0x62, 0x11, 0x3d, 0x21, 0xc9, 0xa0, 0x3d, 0x00, 0x15, 0x65, 0xba,
  0x8f, 0xc0, 0xb6, 0xbd, 0x10, 0x32, 0x0a, 0xbd, 0x2b, 0x57, 0xc0, 0xbd,
  0x55, 0xaf, 0x62, 0xbd, 0xd0, 0xef, 0x0e, 0x3c, 0x08, 0xe6, 0x02, 0xbc,
  0xa0, 0xfa, 0x11, 0xbc, 0x68, 0x31, 0x68, 0x3c, 0xa9, 0x25, 0xb2, 0x3d,
  0xed, 0xf4, 0x5a, 0xbd, 0x66, 0x8d, 0x66, 0x3d, 0x3f, 0x87, 0xd5, 0x3d,
  0xe0, 0x33, 0x31, 0x3c, 0xe6, 0x72, 0xaf, 0xbd, 0x4b, 0x39, 0xb1, 0x3d,
  0x3d, 0x9a, 0xbc, 0xbd, 0x7b, 0xd8, 0x87, 0x3d, 0x6e, 0x17, 0x79, 0x3d,
  0x6a, 0x39, 0xd9, 0xbd, 0x51, 0xff, 0xad, 0xbd, 0x5c, 0x34, 0x85, 0x3c,
  0x94, 0x94, 0xc7, 0x3c, 0x51, 0x8f, 0xba, 0xbd, 0x26, 0x99, 0x01, 0x3d,
  0x60, 0x45, 0x66, 0xbb, 0x9a, 0x4b, 0x8d, 0xbd, 0xa8, 0x49, 0x1b, 0x3c,
  0x1e, 0xff, 0xff, 0xff, 0x10, 0x00, 0x00, 0x00, 0x03, 0x00, 0x00, 0x00,
  0x10, 0x00, 0x00, 0x00, 0x34, 0x00, 0x00, 0x00, 0x01, 0x00, 0x00, 0x00,
  0x04, 0x00, 0x00, 0x00, 0x20, 0x00, 0x00, 0x00, 0x73, 0x65, 0x71, 0x75,
  0x65, 0x6e, 0x74, 0x69, 0x61, 0x6c, 0x5f, 0x31, 0x2f, 0x64, 0x65, 0x6e,
  0x73, 0x65, 0x5f, 0x34, 0x2f, 0x4d, 0x61, 0x74, 0x4d, 0x75, 0x6c, 0x5f,
  0x62, 0x69, 0x61, 0x73, 0x00, 0x00, 0x00, 0x00, 0x64, 0xfe, 0xff, 0xff,
  0x10, 0x00, 0x00, 0x00, 0x00, 0x00, 0x00, 0x00, 0x00, 0x00, 0x00, 0x00,
  0x60, 0x78, 0x95, 0xbd, 0x46, 0xbe, 0x7e, 0xbd, 0x7a, 0xff, 0xff, 0xff,
  0x10, 0x00, 0x00, 0x00, 0x02, 0x00, 0x00, 0x00, 0x14, 0x00, 0x00, 0x00,
  0x4c, 0x00, 0x00, 0x00, 0x02, 0x00, 0x00, 0x00, 0x02, 0x00, 0x00, 0x00,
  0x04, 0x00, 0x00, 0x00, 0x34, 0x00, 0x00, 0x00, 0x73, 0x65, 0x71, 0x75,
  0x65, 0x6e, 0x74, 0x69, 0x61, 0x6c, 0x5f, 0x31, 0x2f, 0x64, 0x65, 0x6e,
  0x73, 0x65, 0x5f, 0x35, 0x2f, 0x4d, 0x61, 0x74, 0x4d, 0x75, 0x6c, 0x2f,
  0x52, 0x65, 0x61, 0x64, 0x56, 0x61, 0x72, 0x69, 0x61, 0x62, 0x6c, 0x65,
  0x4f, 0x70, 0x2f, 0x74, 0x72, 0x61, 0x6e, 0x73, 0x70, 0x6f, 0x73, 0x65,
  0x00, 0x00, 0x00, 0x00, 0xd8, 0xfe, 0xff, 0xff, 0x20, 0x00, 0x00, 0x00,
  0x30, 0x7f, 0x21, 0xbf, 0x50, 0x1e, 0x11, 0x3f, 0xd8, 0x8f, 0x85, 0x3e,
  0xed, 0x0a, 0xb7, 0x3f, 0x0c, 0x43, 0x7f, 0x3f, 0xdc, 0x14, 0x52, 0xbf,
  0xac, 0x59, 0xf4, 0xbf, 0xf8, 0x17, 0x01, 0xc0, 0x00, 0x00, 0x0e, 0x00,
  0x14, 0x00, 0x04, 0x00, 0x00, 0x00, 0x08, 0x00, 0x0c, 0x00, 0x10, 0x00,
  0x0e, 0x00, 0x00, 0x00, 0x10, 0x00, 0x00, 0x00, 0x01, 0x00, 0x00, 0x00,
  0x10, 0x00, 0x00, 0x00, 0x34, 0x00, 0x00, 0x00, 0x01, 0x00, 0x00, 0x00,
  0x02, 0x00, 0x00, 0x00, 0x20, 0x00, 0x00, 0x00, 0x73, 0x65, 0x71, 0x75,
  0x65, 0x6e, 0x74, 0x69, 0x61, 0x6c, 0x5f, 0x31, 0x2f, 0x64, 0x65, 0x6e,
  0x73, 0x65, 0x5f, 0x35, 0x2f, 0x4d, 0x61, 0x74, 0x4d, 0x75, 0x6c, 0x5f,
  0x62, 0x69, 0x61, 0x73, 0x00, 0x00, 0x00, 0x00, 0x54, 0xff, 0xff, 0xff,
  0x08, 0x00, 0x00, 0x00, 0x81, 0x30, 0xf0, 0xbf, 0x7e, 0x30, 0xf0, 0x3f,
  0x04, 0x00, 0x00, 0x00, 0xf0, 0x00, 0x00, 0x00, 0x9c, 0x00, 0x00, 0x00,
  0x5c, 0x00, 0x00, 0x00, 0x18, 0x00, 0x00, 0x00, 0x14, 0x00, 0x1c, 0x00,
  0x08, 0x00, 0x0c, 0x00, 0x10, 0x00, 0x07, 0x00, 0x14, 0x00, 0x00, 0x00,
  0x00, 0x00, 0x18, 0x00, 0x14, 0x00, 0x00, 0x00, 0x00, 0x00, 0x00, 0x09,
  0x01, 0x00, 0x00, 0x00, 0x10, 0x00, 0x00, 0x00, 0x14, 0x00, 0x00, 0x00,
  0x24, 0x00, 0x00, 0x00, 0x14, 0x00, 0x00, 0x00, 0x01, 0x00, 0x00, 0x00,
  0x08, 0x00, 0x00, 0x00, 0x01, 0x00, 0x00, 0x00, 0x00, 0x00, 0x00, 0x00,
  0x00, 0x00, 0x00, 0x00, 0x00, 0x00, 0x06, 0x00, 0x08, 0x00, 0x04, 0x00,
  0x06, 0x00, 0x00, 0x00, 0x00, 0x00, 0x80, 0x3f, 0x88, 0xff, 0xff, 0xff,
  0x00, 0x00, 0x00, 0x08, 0x10, 0x00, 0x00, 0x00, 0x1c, 0x00, 0x00, 0x00,
  0x28, 0x00, 0x00, 0x00, 0x1c, 0x00, 0x00, 0x00, 0x03, 0x00, 0x00, 0x00,
  0x07, 0x00, 0x00, 0x00, 0x09, 0x00, 0x00, 0x00, 0x0a, 0x00, 0x00, 0x00,
  0x01, 0x00, 0x00, 0x00, 0x08, 0x00, 0x00, 0x00, 0x00, 0x00, 0x00, 0x00,
  0x04, 0x00, 0x04, 0x00, 0x04, 0x00, 0x00, 0x00, 0xc4, 0xff, 0xff, 0xff,
  0x00, 0x00, 0x00, 0x08, 0x10, 0x00, 0x00, 0x00, 0x1c, 0x00, 0x00, 0x00,
  0x24, 0x00, 0x00, 0x00, 0x1c, 0x00, 0x00, 0x00, 0x03, 0x00, 0x00, 0x00,
  0x04, 0x00, 0x00, 0x00, 0x05, 0x00, 0x00, 0x00, 0x06, 0x00, 0x00, 0x00,
  0x01, 0x00, 0x00, 0x00, 0x07, 0x00, 0x00, 0x00, 0x00, 0x00, 0x00, 0x00,
  0x82, 0xff, 0xff, 0xff, 0x00, 0x00, 0x00, 0x01, 0x14, 0x00, 0x18, 0x00,
  0x00, 0x00, 0x08, 0x00, 0x0c, 0x00, 0x07, 0x00, 0x10, 0x00, 0x00, 0x00,
  0x00, 0x00, 0x14, 0x00, 0x14, 0x00, 0x00, 0x00, 0x00, 0x00, 0x00, 0x08,
  0x10, 0x00, 0x00, 0x00, 0x1c, 0x00, 0x00, 0x00, 0x24, 0x00, 0x00, 0x00,
  0x1c, 0x00, 0x00, 0x00, 0x03, 0x00, 0x00, 0x00, 0x01, 0x00, 0x00, 0x00,
  0x02, 0x00, 0x00, 0x00, 0x03, 0x00, 0x00, 0x00, 0x01, 0x00, 0x00, 0x00,
  0x04, 0x00, 0x00, 0x00, 0x00, 0x00, 0x00, 0x00, 0xd2, 0xff, 0xff, 0xff,
  0x00, 0x00, 0x00, 0x01, 0x02, 0x00, 0x00, 0x00, 0x10, 0x00, 0x00, 0x00,
  0x04, 0x00, 0x00, 0x00, 0xe6, 0xff, 0xff, 0xff, 0x00, 0x00, 0x00, 0x19,
  0xfa, 0xff, 0xff, 0xff, 0x00, 0x09, 0x06, 0x00, 0x06, 0x00, 0x05, 0x00,
  0x06, 0x00, 0x00, 0x00, 0x00, 0x09, 0x06, 0x00, 0x08, 0x00, 0x07, 0x00,
  0x06, 0x00, 0x00, 0x00, 0x00, 0x00, 0x00, 0x09
};
